的 815128288
▁ 723772004
是 377569647
一 355197309
不 315300271
了 257339809
有 240834591
我 227517543
人 203036228
个 175187708
在 170789968
你 146470906
这 133306281
就 131796754
要 126708828
好 123320168
大 118554413
上 108806852
么 106740451
以 106739678
会 106559750
来 105056693
到 102472505
学 102104475
中 100016184
时 96662904
为 96355605
们 96173343
能 95452345
可 94870692
点 92193035
都 89600897
生 89407940
多 88681604
说 88613802
也 87831466
没 85304813
国 84890049
和 84373734
看 82712523
自 81037922
年 79624326
还 78696191
他 77546342
零 77081538
二 74782836
家 74695384
过 73324132
子 72745302
得 72614588
对 70607140
下 69827166
出 69776277
那 69543237
发 69096501
天 68134425
后 67966554
很 67241698
用 66947998
去 63984333
业 63540607
心 62670992
现 62387089
地 60311446
想 60137864
行 59699122
三 58909034
作 55578856
成 55135930
十 54969611
理 54903130
事 54391892
小 54248565
分 53750279
开 53111462
工 52251017
如 52193235
本 51692314
最 51521662
什 51519302
里 51006580
公 50644974
方 50070483
实 49812213
经 49584586
情 48707057
样 48532375
于 47260259
道 47040898
动 46867688
五 46584338
电 46004159
定 45964889
己 45876580
机 45796196
面 45381516
之 45086462
▁我 44175276
然 43170077
文 42865096
高 42854164
所 42654171
问 41342801
给 41271295
知 40831249
爱 40791002
做 40714402
法 40700585
四 40346549
意 40048227
主 39994407
新 39840753
力 39479044
着 39244514
手 39036936
前 39019944
同 38726231
啊 38631203
真 38036005
话 37984427
只 37948928
感 37808748
些 37580053
果 37384882
回 37030761
种 36573622
美 36478446
网 36081630
老 35939049
而 35769292
关 35582928
全 35282390
日 35158866
比 35095124
间 34925977
女 34820040
起 34565556
信 34233908
无 33974043
通 33709922
其 33515148
明 33460495
吧 33442457
长 33028607
体 32933467
八 32746278
市 32707128
题 32627455
打 32500677
因 32459489
月 32415692
合 32352855
六 32204164
考 32188994
当 31920328
者 31793822
但 31354122
怎 30794122
部 30792477
九 30774019
活 30540361
别 30288823
觉 30247558
性 30228476
进 29914327
加 29843467
吗 29836962
重 29835505
应 29662125
车 29571831
等 29544509
资 29034307
表 28765646
次 28662180
与 28653031
让 28457512
相 28444950
品 28300650
正 28112764
安 27957836
金 27564433
外 27562690
两 27510263
产 27491035
名 26998958
少 26802353
她 26783318
期 26703621
司 26541007
内 26500614
教 26468842
买 26394504
场 26244750
单 26157849
七 26026972
更 25990808
度 25980739
才 25936663
师 25835429
常 25803765
东 25439433
解 25276214
位 25272310
几 25225952
▁n 25224913
化 25188578
系 24944839
▁r 24717858
太 24704072
把 24614680
务 24601868
被 24557436
提 24388948
百 24371856
乐 24262190
从 24125066
保 24093206
友 24083524
候 23989163
量 23917495
计 23798255
西 23726326
证 23419856
费 23409992
接 23371427
目 23197064
钱 23075651
喜 23016809
第 23003126
身 22987680
数 22980057
代 22849195
已 22822677
再 22720740
员 22710569
哪 22596069
价 22536106
直 22457542
该 22408787
欢 22351348
平 22150849
结 22099421
专 22092848
影 22004967
物 21979986
交 21929447
报 21805637
管 21757583
入 21576362
每 21575358
件 21551876
特 21470070
水 21466451
▁一 21459193
哈 21387228
快 21376014
求 21312718
或 21262510
认 20904885
程 20900020
格 20823002
民 20760468
制 20640211
请 20628950
科 20601932
服 20502006
流 20465878
建 20442154
语 20433310
海 20358773
▁这 20301028
儿 20232033
记 20230150
完 20203428
利 20170994
收 20169265
号 20046204
需 20023528
书 20008195
办 19925260
谢 19732728
又 19725594
基 19691896
区 19592760
找 19576541
门 19567207
孩 19425049
路 19341303
头 19287508
气 19206435
受 18996611
原 18982628
商 18964708
试 18921024
世 18838858
变 18808204
校 18791207
并 18727495
思 18716994
视 18560932
总 18509026
呢 18464919
设 18411690
放 18263629
式 18234103
北 18207685
何 18171506
带 18086036
复 18038788
先 17746935
论 17683459
院 17638916
歌 17631424
吃 17612673
将 17405399
男 17317066
习 17236085
房 17181822
口 17127253
像 17076860
见 17031622
非 17018619
错 17015797
算 16997046
▁你 16829092
任 16748134
今 16743633
政 16739731
听 16687717
级 16624124
望 16613082
德 16499644
社 16485834
展 16465598
白 16433199
及 16409732
花 16392162
难 16355559
节 16321122
联 16227898
线 16205841
处 16009617
术 15871083
此 15868955
包 15863277
风 15677864
各 15671547
强 15659759
选 15648549
技 15631110
写 15618416
万 15511413
持 15452753
清 15387448
宝 15317054
元 15177720
色 15177525
走 15170228
界 15164192
神 15146301
跟 15056086
转 14912630
片 14868394
向 14823894
音 14795613
卡 14769681
游 14745953
质 14731869
反 14593762
越 14577722
导 14532125
容 14526071
台 14496231
南 14450588
告 14421319
户 14419401
使 14412395
玩 14399239
改 14343096
类 14199444
装 14164225
张 14085978
值 14085373
帮 14080697
标 14064806
城 14057812
字 14056933
较 14052339
运 14004157
传 13998856
星 13975365
图 13913238
注 13844550
近 13775162
光 13765519
确 13762547
由 13674035
周 13635500
失 13627362
边 13488426
客 13473579
精 13463775
朋 13456447
英 13360135
息 13343011
广 13297727
识 13279504
华 13268118
楼 13260585
妈 13256984
调 13223068
统 13175738
始 13133074
观 13062212
深 13053793
照 13018023
亲 13000475
查 12961503
它 12927540
立 12905000
山 12902888
准 12888476
空 12871010
优 12853948
班 12835818
干 12779432
取 12738214
达 12735693
规 12727513
微 12716557
演 12676451
必 12667310
至 12558643
易 12556362
首 12541514
义 12539501
店 12537976
指 12453624
▁二 12424908
医 12422307
研 12324778
便 12281488
支 12276554
备 12251895
京 12217447
读 12180240
马 12178665
▁在 12166021
具 12154473
款 12152059
历 12134932
育 12120775
据 11984960
决 11913980
且 11757546
创 11757372
言 11684798
示 11662694
住 11633440
站 11574025
推 11541254
企 11528934
条 11525659
投 11518500
谁 11467287
博 11406195
整 11356171
超 11347314
份 11265950
存 11250621
集 11185066
职 11156165
许 11154448
希 11143368
剧 11121588
球 11110603
满 11081762
营 11080161
版 11066092
福 11056463
货 11010970
州 10999966
晚 10995147
课 10834358
离 10822306
笑 10793700
死 10790751
眼 10785887
股 10755661
议 10729111
领 10671504
权 10622122
早 10616624
银 10606889
低 10566921
形 10564628
步 10547420
案 10504702
造 10485368
远 10463294
够 10460908
参 10448710
刚 10432226
组 10422960
婚 10409998
功 10374892
型 10362547
战 10346569
象 10277576
况 10223131
段 10203789
王 10179546
项 10167914
团 10156982
消 10155556
限 10136300
连 10126304
拿 10102147
士 10095820
差 10080052
究 10049642
热 10016141
销 9967613
您 9945023
未 9923503
待 9918842
验 9906530
续 9872592
千 9867641
局 9848535
队 9840455
半 9823620
卖 9817643
源 9782930
讲 9720306
根 9700971
命 9689515
票 9658133
油 9595127
态 9593465
换 9565903
际 9539056
简 9535941
济 9532803
评 9498693
底 9485979
器 9468696
却 9465065
般 9462956
充 9442482
声 9439863
青 9417861
红 9380061
补 9372484
戏 9339031
养 9329968
叫 9328314
共 9311128
火 9199885
购 9149296
效 9119297
毕 9084840
阳 9063498
往 9057616
哥 8999181
料 8938445
初 8932947
唱 8856217
答 8838852
布 8831549
假 8807139
助 8798592
送 8785271
江 8752123
留 8725258
省 8723402
环 8718605
母 8698493
除 8668855
约 8624478
载 8607208
伤 8598307
险 8590645
故 8567238
诉 8532175
拉 8506512
牌 8470141
修 8447529
艺 8440163
随 8418459
病 8395301
哦 8366343
阿 8364467
斯 8361558
脑 8351932
显 8316913
财 8312418
极 8298063
画 8295413
尔 8281263
供 8280327
付 8266562
配 8245335
模 8204866
适 8187408
▁但 8118376
终 8109226
啦 8100878
否 8100795
则 8093640
黑 8088399
断 8082100
责 8056851
策 8051115
治 8044120
足 8042991
愿 8014353
句 7994147
排 7993948
即 7990233
词 7989201
板 7988462
称 7962152
境 7952268
置 7934882
军 7932264
念 7913236
拍 7892985
属 7866012
招 7859395
按 7856210
引 7831450
切 7823178
春 7784169
码 7782482
轻 7766426
众 7760930
兴 7729945
酒 7686051
录 7674759
呵 7658598
划 7649652
速 7646475
独 7642400
克 7624548
绝 7620778
石 7613201
角 7612000
细 7585417
曲 7574227
久 7550342
双 7536938
嗯 7520766
套 7515164
护 7427736
岁 7399796
姐 7399704
父 7388958
食 7341917
维 7297538
害 7281897
座 7274905
响 7263539
择 7262999
势 7228567
预 7223295
梦 7196968
李 7176474
▁at 7173297
▁他 7164056
幸 7145364
普 7145018
构 7134201
获 7113369
奇 7104120
飞 7094269
测 7085583
某 7066741
黄 7058425
遇 7053125
移 7050475
亚 7046815
志 7036785
林 7030097
农 6987230
怕 6904452
增 6873278
史 6822813
▁三 6820052
景 6804817
律 6756031
率 6754735
懂 6750530
群 6739422
园 6714365
承 6709516
委 6698926
饭 6698189
积 6692147
苦 6672832
衣 6667712
章 6661684
售 6642985
致 6624602
盘 6619346
彩 6614104
施 6599572
赛 6563616
米 6560895
短 6549461
爸 6548571
虽 6526968
尽 6514315
急 6480882
呀 6478335
播 6475597
编 6475558
负 6469527
争 6467185
升 6461522
落 6446984
互 6445609
村 6425459
谈 6410923
药 6396175
龙 6364424
须 6363903
笔 6361255
范 6334790
检 6325528
益 6321699
坚 6318339
官 6314445
香 6306373
居 6302474
室 6293217
慢 6280257
永 6275900
频 6266815
额 6250621
富 6249903
挺 6237699
介 6233775
税 6230583
背 6227679
另 6227670
依 6206577
贵 6203149
礼 6189533
享 6136612
免 6134868
味 6099170
素 6090800
击 6089772
材 6079352
巴 6075102
肯 6063222
▁大 6053739
块 6052804
压 6048443
古 6048420
激 6033674
似 6006528
申 5993355
河 5984085
智 5977300
刻 5973184
仅 5955312
训 5921462
睡 5919238
嘚 5914646
穿 5858174
陈 5846132
异 5838722
航 5823497
夜 5821534
旅 5820732
亮 5819502
培 5802011
担 5787136
午 5785233
络 5776533
健 5772982
控 5771634
搞 5759918
温 5755288
曾 5727712
例 5720350
概 5713824
签 5682637
采 5660477
核 5648664
破 5647346
云 5641288
防 5625222
努 5615531
层 5613277
啥 5571740
府 5570162
密 5552947
列 5530438
软 5529191
丽 5520409
册 5518128
乎 5512247
惠 5504228
追 5503418
警 5498960
党 5487300
血 5455723
武 5453790
▁而 5442339
练 5433961
纪 5422884
善 5412071
钟 5398191
嘛 5379168
夫 5372324
举 5359943
围 5358413
忙 5345066
土 5344767
印 5337082
协 5330330
严 5317124
继 5297628
顺 5288231
左 5266436
妹 5266065
恋 5260521
退 5254913
奖 5251461
餐 5243511
靠 5241159
毛 5237207
右 5230893
汉 5230198
融 5227937
批 5217371
灵 5209252
掉 5207152
牛 5200985
突 5176469
析 5162802
康 5140482
倒 5132634
浪 5111427
贴 5101357
紧 5095322
篇 5048095
典 5043450
婆 5013668
翻 4980896
嗡 4980700
趣 4976713
皮 4950929
▁当 4945214
狗 4931401
卫 4918967
状 4902785
悲 4900616
粉 4896014
漫 4892736
县 4892202
聊 4860354
波 4851418
监 4845518
竟 4844806
罗 4839183
询 4838864
登 4820193
顾 4812449
港 4806819
坐 4774602
怀 4751213
折 4732258
秀 4729489
厂 4724447
顶 4718434
韩 4716568
停 4709426
弟 4706419
跑 4699682
敢 4698932
庭 4690995
喝 4682237
良 4671588
丝 4665197
私 4663349
▁a 4651290
疑 4648447
赞 4646250
闻 4643448
静 4639478
铁 4635080
族 4634979
绩 4628746
端 4625334
执 4621931
邮 4619231
审 4613631
止 4601698
熟 4598183
织 4587439
脸 4587388
街 4575076
缺 4573933
劳 4554813
舞 4543862
洗 4537609
诗 4534874
冲 4499945
麻 4496512
忘 4475459
鱼 4472103
木 4456459
痛 4456449
苏 4455794
烦 4443130
汽 4399993
甚 4397465
刘 4395864
革 4394697
喆 4384987
迷 4384297
菜 4366927
操 4364928
坏 4344651
借 4322637
湖 4316910
伴 4310218
冷 4306309
略 4303302
威 4300501
洲 4291557
冰 4290620
▁第 4267468
估 4262925
▁g 4262731
宁 4240336
鲜 4236604
季 4228826
斗 4227566
楚 4198150
减 4182432
纳 4170311
虑 4157948
惊 4156952
租 4145829
述 4145341
讨 4129067
嘅 4119622
掌 4106689
荐 4094611
宜 4094291
键 4074318
纯 4066319
域 4064912
奶 4055380
账 4054520
鼓 4027884
奥 4009966
临 4007222
索 3999956
余 3993655
欧 3988630
雨 3977400
误 3967005
▁小 3961906
降 3945034
础 3935050
括 3934086
累 3925237
救 3922069
汇 3911685
抱 3908327
兰 3885709
童 3885019
杀 3882859
输 3870414
醒 3860223
贝 3856968
察 3846828
厅 3843136
休 3836879
拥 3835826
▁c 3832746
恶 3807835
托 3790372
吸 3783840
侧 3781807
令 3771651
庆 3767928
途 3758822
松 3740950
肉 3738701
尼 3735132
▁今 3718887
恩 3716069
佳 3715211
馆 3704195
贷 3698282
绍 3693434
释 3691039
鸡 3685938
序 3683533
派 3676200
祝 3675513
宣 3663835
币 3659308
▁本 3658996
乡 3657990
杂 3652037
丰 3634823
媒 3605238
疗 3594404
榜 3590884
草 3575057
归 3570176
爷 3570082
困 3568313
弄 3559102
爆 3551951
诚 3546096
旧 3541382
弃 3535424
昨 3534434
拜 3530172
怪 3529334
判 3528593
▁从 3517781
逼 3511504
稳 3511480
▁b 3501315
乱 3491384
忆 3486027
朝 3485723
暗 3482027
雪 3477703
蛋 3476158
圈 3471962
藏 3470382
订 3467652
纸 3466257
骗 3450442
均 3441255
附 3437252
兵 3430161
岛 3427246
迎 3420885
吉 3408199
厕 3395439
堂 3392238
刷 3373365
败 3365116
辑 3358101
阶 3353052
毒 3349597
涨 3343120
谓 3340039
守 3339159
征 3336233
握 3326503
qq 3325499
既 3324641
尚 3319950
夏 3308751
虚 3302229
猫 3297607
摄 3292466
惯 3286788
▁s 3285529
暴 3263588
档 3259525
赶 3251204
若 3241466
脚 3238298
封 3230086
露 3217635
伙 3209361
寻 3207026
亿 3203445
豆 3201743
默 3199901
陆 3198688
娘 3192558
架 3188242
唯 3180029
沉 3173507
巨 3156905
硬 3154786
箱 3154430
陪 3153687
竞 3135460
淡 3130184
含 3124233
野 3124085
嚒 3123727
刀 3113206
佛 3086872
镇 3085029
译 3083474
散 3070686
犯 3068543
阅 3058549
川 3050385
鞋 3050247
遍 3049833
弹 3049078
罪 3045624
雷 3040612
沙 3039933
雅 3026954
综 3022404
扣 3010687
库 3009687
启 3009541
淘 3007327
偶 3003830
页 2998764
盖 2997535
暖 2995926
触 2986178
杨 2984017
胜 2982535
赚 2967948
递 2967375
聚 2962018
床 2952927
探 2940013
跳 2935406
讯 2932700
魔 2932395
轮 2923844
耳 2916346
遗 2908176
搜 2903623
▁新 2898540
妇 2897375
伟 2894301
哎 2894197
湾 2893645
挂 2891201
弱 2887244
危 2880276
田 2877450
透 2876818
访 2865080
▁d 2857338
赏 2851495
抽 2850886
央 2850577
址 2847872
忍 2846046
棒 2844811
占 2841482
▁i 2835858
副 2831415
脱 2825783
尊 2818341
违 2817522
届 2814128
惜 2811006
蓝 2809925
束 2809878
末 2809877
针 2806912
狂 2788728
绿 2788363
荣 2787692
杰 2783342
龄 2781896
符 2781303
驾 2770600
搭 2769023
舍 2761660
详 2756869
圣 2754139
偷 2753975
茶 2744789
损 2735678
妻 2733985
玉 2733969
挑 2730907
凡 2727622
缴 2727431
灯 2727237
勇 2727110
宽 2719396
聘 2701219
辈 2700554
烈 2699462
洋 2696662
钢 2693117
树 2686539
伦 2675044
峰 2674874
偏 2672481
烟 2672295
混 2666796
豪 2662077
券 2661090
固 2655865
尤 2655141
抓 2654338
帝 2653138
避 2651640
攻 2646321
漂 2639815
幻 2637466
跌 2622077
咨 2612252
舒 2600593
珍 2596753
诺 2589602
映 2589600
欣 2589260
励 2579409
颜 2573644
咱 2567340
泰 2563493
幕 2561960
呼 2560588
甲 2553989
鬼 2550938
嘴 2546427
厚 2542947
滴 2538400
▁她 2538327
叶 2532474
s 2528898
仍 2514653
晓 2503474
哭 2503236
障 2502287
缘 2499814
秘 2496327
射 2487170
筑 2470491
残 2465074
镜 2459920
骂 2455241
杯 2446974
摩 2442827
净 2425273
迪 2420374
授 2415517
辛 2412985
盛 2412901
圳 2407903
牙 2406427
恐 2405584
灾 2403399
骨 2390694
渐 2389050
帅 2385865
献 2376456
秋 2373597
胡 2372830
沟 2371706
刺 2367009
酷 2358621
▁您 2358032
肥 2356660
著 2354008
圆 2347957
闲 2347182
插 2344948
泪 2340846
丁 2336952
兄 2335529
抢 2333923
勒 2332820
洁 2332637
闹 2325280
巧 2325223
扬 2319758
▁t 2315583
莫 2313155
敬 2312357
凭 2307046
嘉 2303453
桥 2301899
孤 2300898
奋 2300545
震 2300322
奔 2298228
晨 2297723
吴 2296243
▁l 2292954
卷 2291115
贸 2290252
宇 2286757
闭 2286531
幼 2286522
姓 2283368
虎 2279436
抗 2277384
予 2274685
腾 2273470
阴 2273228
拟 2272213
尾 2263637
屏 2262385
湿 2260064
挥 2254787
冬 2240331
润 2239131
延 2238329
傻 2235198
齐 2233536
顿 2232297
. 2227957
雄 2220873
宗 2220231
帖 2218145
描 2214211
潮 2212497
宿 2212269
津 2207837
猪 2199060
貌 2194672
盟 2194651
禁 2181676
毫 2180528
饰 2169706
艾 2161707
纠 2158148
涉 2152636
隐 2140303
咯 2135443
屋 2135060
嘿 2133403
孙 2122562
欲 2121024
填 2120179
促 2118884
宫 2115684
席 2111234
逐 2108370
距 2106840
仔 2101559
幅 2092125
疼 2088651
狮 2080575
俩 2079361
迹 2077289
▁x 2072993
锅 2072815
仁 2069479
梅 2065200
仙 2059691
债 2043794
奏 2042984
督 2042706
耐 2036222
p 2034050
嘻 2033634
皇 2032971
烧 2027332
丹 2023739
丢 2022518
羊 2019811
拼 2019780
鼻 2016845
寄 2014158
娱 2009991
姑 2005432
偿 2003626
菲 2000564
磨 1998758
冠 1991380
链 1977628
肤 1974918
劲 1972958
乘 1968173
叔 1964465
谷 1963730
摆 1962753
岗 1962676
绪 1962013
捕 1954348
蒙 1952414
甜 1951321
扯 1951206
昌 1939373
琴 1936843
郑 1935856
珠 1930208
酸 1928292
删 1923916
籍 1917586
抵 1913292
旗 1912111
剑 1911666
唐 1905358
船 1903751
染 1903678
慧 1903448
薄 1903006
疯 1901299
锁 1894384
暂 1893115
瓶 1886205
厉 1886076
俗 1879295
隔 1877810
悉 1877207
摇 1876939
哲 1876590
潜 1875547
尝 1872704
截 1869154
敏 1863830
m 1858575
▁m 1858259
庄 1857270
兼 1857081
赔 1850121
赵 1849138
罚 1849113
徐 1847363
泡 1844394
迁 1843460
跨 1842790
坛 1840374
丑 1839901
祖 1834781
薪 1832385
倍 1826169
忧 1822843
废 1818870
鲁 1811261
穷 1810267
症 1809325
纷 1809310
践 1808570
忽 1802371
孕 1801258
储 1799136
拒 1799090
澳 1798421
朗 1796418
趋 1794479
娜 1789318
仪 1788017
塔 1786659
灰 1785790
咋 1781050
裁 1780683
旦 1772360
幽 1771952
赖 1768551
迟 1767990
苹 1766504
▁q 1764639
熊 1758854
宾 1751923
搬 1740741
霸 1736843
君 1736007
妆 1735091
伊 1728658
仓 1724102
冒 1723163
患 1720926
寒 1717115
碰 1714283
辆 1712247
▁p 1711587
彼 1703752
凯 1699084
紫 1692853
敌 1688510
泥 1688392
亡 1687940
猜 1682045
▁k 1681846
萌 1679841
倾 1679819
迅 1679155
剩 1677704
悔 1674454
浮 1671248
缩 1670848
焦 1663099
赢 1661638
衡 1659107
铺 1657710
瑞 1655932
刑 1654451
替 1654093
郭 1653642
吹 1652524
妙 1650324
蜜 1649627
腿 1649580
硕 1647024
饮 1645297
彻 1645061
伯 1643044
勤 1639533
滑 1638712
傲 1637174
洞 1635591
梁 1634723
莱 1631805
凉 1629296
戴 1618316
糖 1612967
鸟 1612431
繁 1608823
玛 1603418
旁 1602903
麦 1602377
液 1602066
窗 1601683
摸 1600486
凤 1599751
蛮 1589537
堆 1589451
鉴 1585552
娃 1581784
爽 1581735
刊 1581726
辞 1580774
汤 1577743
卧 1576314
胎 1575319
森 1572479
盾 1572362
悠 1571866
胆 1571853
浙 1571533
甘 1570957
炒 1570202
撤 1563148
枪 1562711
阵 1562131
吐 1560865
聪 1558422
筹 1557791
柔 1555136
柜 1554873
姻 1551954
池 1551549
曼 1551417
踏 1551235
辅 1542196
植 1541021
盗 1539138
胖 1536061
拖 1535109
窝 1530954
亏 1530725
魂 1529544
污 1529463
揭 1528098
扩 1522798
盒 1522540
恒 1519066
拆 1517947
泽 1516963
械 1515879
尸 1515558
仿 1514914
呆 1512747
坑 1512397
殊 1506818
睛 1505167
辉 1504772
邀 1503780
厌 1499767
谱 1495321
崇 1492441
挖 1491941
逃 1489733
驶 1488601
拔 1487279
洛 1484621
煤 1483142
缓 1482333
墙 1482273
炼 1481763
坦 1478205
返 1477899
恨 1476261
塞 1471239
措 1469979
▁w 1467277
贫 1466883
悟 1466800
迫 1463936
滚 1460156
乏 1455562
秒 1455534
荡 1454437
览 1449430
桌 1448681
锋 1442391
烂 1440438
邦 1437958
遭 1436792
稿 1431854
哇 1428130
逆 1423290
惑 1421989
忠 1415839
欠 1413809
膜 1408589
怨 1408021
垃 1404421
稍 1404321
闪 1404080
呗 1403442
董 1401116
夺 1400646
▁由 1397265
召 1397041
哟 1392844
壁 1392771
驱 1391920
吵 1390274
颗 1388879
径 1388255
荷 1387860
添 1386164
泉 1384506
魅 1384325
虫 1383844
怒 1383767
乌 1382123
耶 1381862
欺 1381216
宏 1378762
颁 1377892
矿 1374547
拨 1373861
挣 1370645
懒 1369656
沃 1366359
畅 1364498
宋 1361803
诞 1361167
骑 1360708
瓜 1359667
乂 1359547
横 1358101
扰 1357733
疾 1356289
尖 1353667
耗 1353625
碎 1349103
陷 1341568
亦 1339481
唉 1338671
沈 1338583
▁e 1338027
撑 1333376
裤 1332287
侠 1331565
辩 1330174
柏 1329953
圾 1325526
晶 1320245
辣 1320203
悦 1319430
袋 1318412
腰 1317016
徒 1315784
绑 1310797
胸 1310400
矛 1309458
井 1308078
轨 1306736
犹 1306032
胶 1305853
朱 1305452
捷 1303754
嫌 1301638
▁王 1296605
帐 1295846
扎 1292200
杭 1291434
撒 1291049
灭 1291000
孔 1290866
俊 1288630
徽 1288136
涵 1287280
毁 1287132
誉 1284014
喷 1283914
宠 1283865
醉 1282341
氏 1281287
腐 1280797
喊 1279875
吓 1276938
诸 1274126
▁李 1273046
姨 1272293
兔 1269948
▁v 1267306
戒 1267188
篮 1265683
俄 1265153
斑 1263371
剂 1259379
呃 1256702
哼 1254568
糕 1253186
扫 1246814
泛 1244082
岸 1241632
闷 1241366
扶 1240402
凌 1239341
寿 1238180
斤 1236841
粗 1236752
糊 1233210
擦 1232687
笨 1232380
屈 1231524
绘 1228735
邪 1226429
阻 1224203
磁 1224105
割 1221787
汗 1220688
▁此 1219955
墨 1218875
羞 1214246
碑 1213674
逗 1212234
浅 1211878
慰 1211382
屁 1209102
牵 1207115
朵 1207111
妮 1207018
愉 1205055
乳 1204050
兽 1203429
郁 1202769
肌 1202356
厦 1199372
奈 1198098
浩 1193730
纹 1190809
钻 1188916
卑 1183971
▁前 1183681
逻 1181639
翼 1180609
仰 1180386
暑 1178444
塑 1177636
嫁 1176691
谐 1174867
慕 1174054
抄 1172784
盈 1170166
傅 1169544
允 1169270
姆 1164557
碍 1163994
妖 1161318
f 1160472
炮 1158242
萨 1155889
埃 1154190
尘 1153437
欸 1152099
恰 1146285
拾 1145225
杜 1144889
拓 1144681
渠 1143592
瘦 1139426
d 1138882
桃 1138803
逛 1137974
槽 1137620
谋 1136648
耀 1134811
扮 1133463
饱 1132857
锦 1129344
陶 1129336
番 1127571
恢 1126076
昂 1125657
咖 1124837
侵 1123153
跃 1122553
隆 1120332
挨 1119878
炸 1119598
粮 1118820
堡 1118142
狼 1117690
蹈 1117285
炎 1117010
坡 1116988
眉 1115213
诊 1113955
怜 1113586
押 1110933
赌 1110164
媳 1104905
陌 1102723
芭 1094825
剪 1091085
伪 1090293
漏 1090268
夸 1088512
n 1087896
惨 1087677
鼠 1087160
丈 1086605
裂 1084258
秦 1081918
佩 1078009
撞 1076659
燃 1074631
哀 1074037
罢 1071588
尺 1066374
浓 1063813
玫 1063484
晒 1063255
摊 1062231
催 1060053
寂 1057750
援 1057534
黎 1057497
芳 1051587
姿 1051503
挤 1051433
氛 1048633
栏 1048005
狠 1046088
夹 1045716
慈 1044413
爹 1042046
脉 1041802
厨 1039646
邻 1037577
脏 1035949
艳 1035486
翔 1034339
▁u 1033406
遥 1033113
仇 1031042
恼 1030176
寸 1029886
串 1027088
旋 1026915
艰 1025959
袭 1024637
贯 1020932
贡 1020438
尿 1020422
壮 1019908
燕 1015645
荒 1013866
邓 1013109
▁iphone 1012136
涂 1011136
剥 1010601
卓 1008773
祥 1006140
涡 1005663
呈 1004779
玲 1004414
肚 1004343
洪 1004174
乔 1004082
伍 1002276
宅 1000734
盐 1000579
扒 999688
抛 999590
扑 998603
憾 998133
饿 992985
栽 992100
莉 991357
晕 991032
渴 990046
b 989588
腻 989284
滋 988764
贪 987420
贤 986849
蟹 986283
肋 985440
绕 984075
劝 982885
垫 982871
渡 981520
晰 980363
▁据 978635
挡 977862
▁good 977173
框 975682
竹 973747
叹 972337
鸣 971590
胞 970864
眠 970113
循 969659
瞎 968552
奉 967234
鹿 965867
▁com 964929
诱 962679
肩 960783
蛇 957696
歉 953341
郎 951741
拳 947169
壳 944917
侣 941659
▁y 941650
碧 940839
熬 938707
滨 937520
莲 937031
▁f 936479
喂 935778
臭 935317
伏 935164
稀 934879
覆 931428
沿 927844
函 927734
枝 927328
兑 926753
癌 924582
振 924076
昆 922677
勾 921959
饼 919939
肠 918339
赫 917765
▁o 917311
噢 915953
z 915534
纵 914330
赠 913648
愤 913319
瞬 910770
辰 907915
虹 903790
玻 899181
咬 897000
携 895884
溪 894746
乙 889629
朴 887361
耍 887185
o 886774
羽 886725
廉 886179
酬 883907
抑 882212
跪 880584
芝 879763
辨 878832
啡 878638
娇 877825
伸 876137
吊 875950
c 870986
谨 870916
涯 867025
哆 866567
孝 863170
旺 862844
恭 862811
愁 862318
戚 861968
颖 860911
俱 858312
吻 857488
y 857440
凑 855143
臣 851868
杆 851694
怖 851138
浦 849539
遮 849416
瑰 849348
坊 849302
堪 848836
t 847089
惧 844502
梯 843423
茫 842357
▁h 841547
遵 840837
埋 838993
妥 838992
谅 838898
脆 837975
冻 837131
裸 836628
牢 833798
渣 833254
胃 832825
俺 832644
贺 832094
晋 831147
纱 830783
赋 829487
疆 829311
赤 826754
慎 826695
凹 826277
皆 825660
弯 824708
飘 824224
涛 824162
猴 823652
迈 823579
烤 822946
撕 818546
蔡 818087
苗 817399
愚 817135
脂 816091
崩 814057
棋 813361
铜 812445
桂 811989
糟 811927
柳 811903
汪 810625
悬 810579
砖 810031
哒 809260
铃 808603
兜 806718
乖 804318
谦 804127
陵 803999
锻 803978
岩 803409
帽 802138
蓄 801276
碗 800467
苍 798676
舰 798188
曹 798118
猛 795288
脾 794113
仲 793324
抚 791283
瓦 789823
馨 789267
丧 788982
曝 788645
辽 787523
奢 787487
巡 786772
猎 785796
宰 784404
羡 783121
契 779608
哉 778961
盲 778145
姜 776491
署 775678
夕 775407
庸 774617
戈 772707
颠 770145
痴 769810
霞 769778
霍 767938
闺 764773
咁 764661
鸭 763622
捐 763551
肿 763340
狱 762462
乃 762142
叭 761274
谊 759986
泄 759744
腹 754766
婴 754243
骄 753634
雾 753198
啰 752024
肃 751657
厘 751189
莎 750233
蒂 749499
爬 749330
喔 749106
叙 748821
躲 747882
▁ps 747086
屌 745983
愈 745531
惹 744173
衰 743183
纲 740882
岳 740833
蝎 740071
奸 739819
卜 738857
▁app 735580
葛 731442
瓷 729355
炉 727350
劣 726686
摘 725784
纽 725216
寞 724427
桑 722694
x 721589
逸 721561
驻 721193
屎 720831
▁j 720671
堵 719744
谣 715510
寓 714135
塌 713402
痕 713063
忌 712570
泳 710816
挫 710245
璃 709722
柯 707613
祸 706669
酱 706576
暅 705727
骚 705445
雕 704476
狐 704102
扇 703857
叉 703830
逝 703038
阔 702859
抹 700801
凰 700566
唤 700524
唻 699777
肖 698151
扭 697812
牧 694367
诈 694289
辱 694270
▁ok 692531
薇 692416
叻 691096
湘 689628
肝 689443
驰 686501
琳 685827
e 684541
浏 683964
萧 682825
踪 682347
矮 682118
虐 680773
淫 680529
齿 678586
贱 678498
梨 677047
豫 676300
敦 673510
踢 671488
谎 671198
躁 670122
澡 669965
疫 669554
抖 668951
棉 668817
衷 668578
毅 667808
拘 667326
囧 666027
抬 665740
氧 663429
虾 663345
尬 662038
馈 661653
巾 660791
柱 659770
贬 659137
▁z 659018
喻 657702
菌 656961
歇 656575
韵 655894
芬 654516
弥 652926
灌 652144
粹 651657
呐 651192
寺 649024
缠 647624
熙 646130
歧 645622
鸿 645207
凝 645200
盆 644164
炫 642279
魏 640723
劫 639840
缝 639540
卸 636481
汁 634806
蜂 634588
疏 633093
锐 632819
凶 632795
漠 631936
粘 631777
煮 630980
逊 630290
晴 630139
砍 628755
裙 628422
▁win 627634
芯 626973
洒 625998
涌 625734
贾 624808
殖 623957
蒋 622915
坎 622885
墓 622491
痘 621799
筋 621076
肺 619289
葱 616885
溜 616117
腔 615156
尴 614893
趁 614087
岆 613295
疲 612979
霉 612898
削 612483
呜 612211
淀 611918
颇 611881
侯 611019
僵 609968
筒 608848
膀 608138
陕 607988
cc 606445
耻 606283
歪 606134
浴 604724
铭 604534
玄 604358
舅 603797
辖 603614
捧 600285
鹏 599190
掩 598466
粒 598410
犬 597726
伐 597699
宙 596878
敲 596121
瑶 595880
役 595878
奴 595407
鸽 594685
履 593810
桶 593735
岭 592658
箭 592430
柴 591694
漆 590133
冯 589957
妨 589234
憋 588900
踩 588094
娶 587398
劵 585824
绵 584876
御 583540
讼 582144
躺 581395
盼 580609
椒 580129
琪 579563
a 579117
锡 578246
舌 577354
捉 577121
嘲 576917
蒸 576387
斥 573696
萝 573512
伱 573401
喵 573320
掘 573252
淋 572958
卢 572497
蕾 570807
厢 570783
苯 569281
蠢 569006
矩 568746
袁 567209
扔 566798
慌 565632
昇 564999
丫 564795
轰 564775
勃 564707
莞 564386
悄 564333
袖 564124
孟 563823
旨 563687
垂 563672
婷 563333
潘 562890
愧 562297
捞 561548
姚 560724
韦 559192
鼎 558731
摔 558433
g 558006
宴 557909
赴 557773
匹 556768
沪 555914
蜡 554987
鑫 554942
腊 554901
砸 554418
▁mv 553375
苑 553358
侦 553239
堕 552231
阁 551988
▁do 551841
叛 551698
呦 551424
稽 551368
舟 551335
轩 551103
玥 550211
募 549956
鄙 549943
逢 547756
椅 546389
龟 546258
披 545984
蝶 544268
咽 542664
吼 542331
寨 541204
鹰 540992
薛 540304
裹 539299
杠 536130
枚 536096
衬 535797
裕 533852
胀 532574
祭 532558
泼 529330
揪 529163
撼 528980
倪 527832
殿 526642
咪 526595
纤 524189
磊 524005
甩 523025
鹅 522996
tv 520727
祂 520413
骤 520326
秤 520273
爵 519899
瑟 519753
兆 519393
亭 517144
倡 516976
勿 516869
弊 516609
绎 515959
畏 515412
彭 514896
氨 514785
霜 514503
溃 512372
囊 512212
塘 511916
霓 510587
挽 510455
▁no 508612
笼 508255
牲 507929
轴 507106
弦 505308
啪 504761
闯 504709
沫 504266
儒 504166
慨 503889
葡 502436
佣 502083
翠 501402
匆 500710
饥 500116
栋 499912
勉 497185
▁id 496849
塆 496749
禾 496664
匿 496000
疤 495867
搏 495451
丛 494961
麽 494218
碌 493913
瘾 493610
坝 493099
膏 492470
宪 490519
宵 490417
惩 489636
浆 488725
丘 488090
灿 487975
稻 487215
咳 487212
耕 486620
侃 486524
弗 485439
靓 485347
胁 484248
贼 484016
捣 483914
趟 483846
丸 483131
芒 482799
钓 482070
煎 481416
捡 481205
妃 480522
樱 480501
诶 479989
妞 479942
咸 478835
埠 478287
吱 476932
擅 476469
羯 476259
嫩 476018
肾 474530
溢 474374
螺 473338
颈 472622
扂 471485
廷 471409
囖 471321
帆 470969
辟 470327
霆 470214
▁it 468676
鞍 468557
萄 468384
撸 467926
碟 467643
噶 467248
钥 465554
崽 465375
浑 463491
蚀 463359
卵 462439
讽 462400
嗨 462164
渔 460383
瓣 458587
伞 457658
怡 456762
菊 456413
臂 456228
殑 455970
叠 455080
雇 454279
旸 453881
吕 453707
唇 451371
匙 451234
昏 450921
冤 450687
瞧 450520
泊 450307
於 449869
粤 449759
碳 448128
勘 446534
阐 446382
琐 445906
牺 445840
棚 445742
淮 444839
枯 444072
耽 443281
蔚 442875
哄 442288
昧 442025
坤 441787
姥 441379
拐 440958
葩 440661
硅 440596
郊 440480
仗 439628
纺 439524
搁 439292
罐 438896
罩 436428
扁 435678
▁windows 435293
韧 434966
驳 434485
滩 434392
庞 433855
阀 432924
鹤 432899
刮 432207
蚌 431949
誓 431172
壬 431113
▁ali 431023
涩 430817
攀 430806
渊 430408
峡 430107
贞 429229
橙 427827
狸 427750
肢 426642
pu 426592
丙 426361
澄 426006
佬 424975
寝 424535
斌 424061
佑 423686
窃 423542
刃 423412
蔬 423074
煌 422805
庙 421408
贩 421194
痒 421181
炭 420515
蹦 420008
旭 419311
匠 419194
绣 419181
茅 419034
辙 418964
沧 418134
掏 417812
喽 417795
曰 417205
吨 416563
丶 416442
穴 415987
▁the 415963
鞭 414631
斜 414515
捏 414426
豁 414422
嫂 413629
堤 413402
浸 412833
酉 412413
棍 412142
雀 411868
滞 411213
绳 411094
敷 410917
妄 410905
笛 410894
兹 410398
卦 410206
烫 410039
吞 409058
▁ja 408501
侈 408307
崔 407864
诵 407383
燥 406843
逾 406798
锤 406669
倭 406200
赁 405669
蓉 401522
▁wifi 397598
瑜 395722
蛾 394584
冇 394261
甸 393857
喉 393527
巍 393117
衫 390954
颂 388458
滥 387844
佐 386219
谜 385841
奕 384953
砂 384361
泵 384070
潇 384067
芦 383514
椰 383436
婉 383383
钉 383269
谭 382629
钩 382553
瘤 382523
雯 382252
凸 381168
醋 380679
蕴 380430
衍 380128
颤 379897
玖 379305
茂 378863
嘘 378838
秩 378826
媚 378441
旱 378340
汰 378250
狭 378113
稚 378073
绒 376981
肆 376891
晗 376673
嗒 376534
啤 376424
遣 376349
▁mp 375764
妒 375459
铅 375348
吾 375335
舆 375225
弘 374705
巫 373379
辜 372813
攒 372658
赐 371782
帕 371436
禅 369787
蹭 369431
唔 369292
莹 369135
袜 369040
磕 368833
詹 367677
盯 367392
扳 366470
冶 366092
尉 365778
溶 365113
荆 364109
萍 364017
葬 363890
嘎 363712
滤 363342
晃 363251
梳 362967
挚 362735
▁android 362442
秉 362342
穆 361771
夷 361354
姬 360186
叨 360176
匪 359909
梗 359226
寡 358715
巷 358469
ge 357562
吖 356712
畜 355746
沾 355740
刹 354949
彰 352162
渝 351573
旬 350751
舔 350255
焊 349292
镐 346754
驴 346437
蔽 346250
咏 346136
廊 345706
矫 344762
嫉 343958
琢 343757
岂 342552
棵 342423
菇 342156
絮 341359
冥 340654
▁xx 340629
庚 340298
拌 339992
钙 339119
琼 338572
魄 338022
蚊 338011
勋 338008
拯 337517
ba 336864
芽 336796
叮 336711
靖 335573
桐 334460
簿 334102
镶 334082
戳 334023
剖 333897
垄 333512
拦 332931
巢 332208
蚕 332026
脖 331595
昭 331296
掀 331193
疟 330741
巩 330651
咧 330239
枫 330013
韭 329479
豹 329237
翁 329157
甄 328106
坪 327159
隶 325664
衔 325589
馋 324953
竭 324440
▁in 324283
翰 323876
淑 322771
澜 322757
弈 322604
罕 322351
乾 321735
枣 320693
睁 320568
潭 320202
咒 319537
卿 319290
菱 318873
屑 317111
瞒 315949
搅 315659
惟 315523
祈 314275
藤 314252
▁di 313754
▁cry 313738
▁ta 313376
祎 313039
襄 312341
腺 312167
磅 310912
伽 310060
铝 309981
珊 309542
壶 309115
屠 308582
茨 307001
恳 306416
倦 306262
芙 306095
▁cd 304746
榴 304600
梭 304209
撰 304129
蕉 304091
擎 303892
挪 303330
翅 302965
灸 302452
泣 301881
栖 301751
倩 301300
饶 301130
榆 300314
烛 300165
蓬 300048
昵 300018
躯 299789
屡 299478
牋 299315
浇 298711
亩 298479
渗 298240
楠 297473
璟 297449
霾 297078
彦 296630
粥 296527
杉 296404
歹 296257
嚎 296101
匀 295145
枕 294985
缸 294836
吟 294614
怼 294313
坞 294039
饵 293767
彬 293617
弓 293317
侍 292946
抒 292506
懈 292445
讶 292174
赎 292091
▁cm 291433
哗 291051
斩 290268
褐 289952
旳 289378
撩 289253
皱 288977
耿 288525
飙 288337
坟 288016
虞 287898
妍 287775
佢 287411
沦 287345
昔 287163
柄 286888
哑 286871
顽 286043
爪 285985
崎 285892
坠 285628
淤 285577
i 284739
枉 284313
蹲 283461
酿 283219
懵 282735
膝 282555
嘟 282346
▁ce 282306
靶 282142
窄 281762
株 281534
敖 280398
暨 280276
▁din 280084
皂 279448
幺 279372
鸦 279322
嵌 279086
骏 278559
辐 277917
槛 277533
杏 277426
沸 277303
剔 277015
黛 275632
陡 275091
嗓 274315
喘 274184
莓 274182
钮 273662
苟 273571
饺 273280
睿 272880
氓 272741
筛 272606
嘱 272321
娟 272237
蒜 272181
栗 271677
陀 270373
蝉 270191
睹 270134
▁ab 269928
诠 269077
洽 268928
膨 268874
腥 268518
巅 267822
nh 267650
瞅 267625
▁mm 266674
诡 266597
碘 266300
喇 266286
冈 265893
蛤 265864
潍 265638
啧 265503
昊 265429
噪 265389
稠 265129
陋 264447
幂 263045
鲸 262938
va 262179
诀 261450
薯 260704
亥 260275
橱 260115
僧 259758
腌 259574
崛 259320
俞 259236
剁 259097
奠 258942
茄 258786
屄 257555
绊 257243
壕 257220
硫 257141
蜗 256946
髓 256492
墅 256380
v 256077
唠 255278
舱 255233
哺 255022
悍 254888
桩 254739
▁tv 254315
钞 254024
扛 253156
蚁 253025
蔓 253023
撮 252719
轿 252718
桔 252184
▁pc 251588
▁cs 251474
侨 251187
咕 250714
▁ca 250469
腕 250421
氮 250139
酶 249800
艇 249464
帘 249382
朔 249181
疚 248327
掂 248044
焗 246334
蜀 246223
裔 246206
溺 246068
蛙 245903
▁ty 245708
▁vip 245641
凿 245227
邱 244625
兮 243835
鳎 243753
橡 243221
吁 243214
绷 243023
趴 242903
殷 242879
嚣 242394
凳 241977
渺 241875
沂 241874
菩 241491
熏 240845
pad 240801
窑 240539
嗦 240338
靴 240101
肇 239659
尧 239007
彤 238741
▁big 238320
揉 238024
茜 237786
▁of 237490
脊 237476
缚 237204
郝 237169
贿 237042
埔 236713
哩 235981
鲍 235974
锈 235124
碱 234700
壹 234633
祷 233898
乒 233762
溯 233218
泌 233153
闽 232453
醇 231829
揽 231615
彪 231419
pr 231221
敛 231015
氢 230299
筝 229892
r 229733
▁mac 228428
遂 227643
崖 227354
谍 227336
阜 226424
憨 226309
▁to 225678
瞪 225657
boy 225135
咩 225065
j 224525
乞 224469
仕 224179
帧 223866
翘 223809
侮 223780
竖 223728
敞 223520
嚼 223332
靡 223265
壤 223150
毙 222623
▁you 222593
pk 222582
媛 222216
隙 222028
锌 221448
玺 221092
毯 221004
噩 221001
橘 219789
揣 219668
bb 219396
澈 219236
暧 219090
邵 219066
屯 218817
咀 218759
沥 218740
垒 218655
▁km 218586
酵 218000
湛 217904
厄 217661
▁us 217468
滇 217246
雍 217246
暮 216667
岔 216649
铸 215522
饲 215361
抠 214894
邢 214317
▁mu 213630
▁vr 213424
淇 212739
搓 212649
愣 212591
粪 212467
苛 212455
肪 212315
苞 212163
聆 211903
掺 211322
逮 211122
亨 210722
霄 210577
麟 210573
狙 210509
孜 210227
镑 210097
曦 209901
癫 209194
惰 208805
牡 208562
沐 208399
黏 208123
甭 208009
缔 207967
缅 207810
铲 207714
os 207643
缆 207255
汕 207167
蝴 207156
钠 206058
q 205910
枢 205882
殇 205722
摧 205620
犀 205161
窦 204994
烘 204876
歼 204600
揍 203870
璐 203748
妓 203120
▁haha 202796
▁ex 202432
俏 202357
▁boss 202196
w 202165
坷 202056
诛 201844
拙 201643
焰 201604
哨 201311
漓 201047
▁style 200960
蛛 200740
绽 200385
▁excel 200374
淹 200304
瘫 200289
渤 200143
觅 200137
噎 199827
瘪 199786
bang 199717
畴 199166
犁 199054
祛 198284
蛆 198270
拽 198250
卤 198039
蚂 197976
▁google 197703
憬 197576
羁 197469
霖 197331
憧 196827
栈 196779
茎 196238
na 196093
俭 195938
纬 195042
琦 194952
雁 194856
凄 194243
袍 194127
赣 193748
雏 193722
讳 193594
焚 193588
瞳 193551
恍 193543
骇 193346
孵 193289
钦 193232
淳 192812
葵 192700
礁 192328
殴 191922
仑 191916
▁de 191721
侄 191715
鳖 191659
禽 191507
焕 191125
梵 190940
挠 190307
灶 190207
咚 190098
闸 189975
伺 189560
烊 189540
茹 188893
邹 188511
盅 188367
仆 187857
韬 187683
懦 187498
唧 187198
蒲 187178
葫 186974
畸 186876
噗 186866
尹 186361
垮 186245
褒 185992
峻 185975
掠 185866
▁www 185859
掐 185550
昕 185322
硝 185310
汀 184443
傍 184415
嫣 184243
绅 184242
褶 183840
芜 183663
锕 183602
窍 183203
耙 183130
狄 183059
椎 182940
皓 182861
卉 182592
桓 182387
嵩 182173
啃 182167
▁cz 182021
▁me 181864
呕 181745
棺 181657
▁ad 181605
佰 181146
颐 180781
樊 180733
藉 180711
沛 180319
馅 180122
▁so 179858
烁 179720
煞 179577
濒 179469
谴 179420
糙 179416
鄂 179367
惕 179182
韶 179177
▁dj 178956
暇 178608
劈 178551
绯 178399
啸 178152
泻 177951
籽 177905
拷 177468
▁em 177255
旷 177134
▁xxx 177101
拢 176656
淄 176470
▁top 176389
瑕 176236
澎 176064
庐 176035
嘞 175096
稣 175085
▁lol 174914
er 174832
猥 174827
萎 174739
▁my 174396
掰 173999
恤 173917
玮 173891
汾 173767
囚 173275
琅 173051
萱 172963
瞻 172765
孽 172505
怂 172384
鞠 172192
芸 172180
勺 172167
喧 172163
cf 172069
俯 171897
镀 171884
冀 171653
讷 171535
乓 171474
咔 171462
抉 171356
喃 171292
▁vs 170695
惫 170560
粑 170540
棕 170342
▁am 169769
婶 169225
禄 168791
苔 168707
眯 168606
▁be 168427
▁love 168195
丐 167998
荔 167878
芥 167763
寥 167476
缀 167115
楷 167042
睦 166839
柠 166268
搂 166205
▁is 166120
熔 165819
捆 165813
驹 165453
梧 165270
圭 165088
汝 164989
窥 164874
吏 164747
ta 164596
秃 164583
ppt 164320
恬 164111
倚 164060
檬 163854
▁baby 163588
ht 163538
舶 163462
嫖 163258
碾 163215
婊 163208
撇 163174
姗 162451
ma 162054
遏 161598
廖 161242
疮 161075
幢 161041
朽 160939
囤 160861
牟 160844
▁er 160759
嘶 160674
矢 160627
疹 160495
荧 160043
睐 159954
▁hi 159937
岚 159811
榄 159654
茵 159415
谬 158212
刁 158104
斋 157805
癸 157658
珂 157478
▁pro 157403
嗷 157081
猩 157025
鹫 156733
僻 156643
龚 156590
恕 156145
湃 156142
驭 156123
纶 155881
肛 155743
沽 155666
譬 155535
袄 155533
锯 155368
蜘 155339
菠 155057
棘 155010
篱 154643
竿 154627
txt 154266
蹄 154140
舵 153637
▁class 153587
涕 153372
笋 153257
钧 153098
拱 152953
蝇 152941
僚 152866
俘 152814
眷 152804
拂 152793
迭 152745
榨 152465
眨 152375
喀 152148
妾 152110
窟 152032
▁ai 151961
▁word 151774
臀 151733
邑 151727
艹 151434
诫 151314
▁lin 151257
, 151212
烹 151125
捂 151087
▁hr 150963
釉 150854
煽 150822
鲤 150659
惦 150418
娅 150408
逍 150229
弧 150224
琉 150204
贰 150002
▁university 149902
雌 149885
剃 149570
son 149511
镁 149230
酥 149210
gt 149022
▁by 148793
渲 148786
噜 148736
瞩 148628
▁bug 148479
怯 148458
匣 148003
▁one 147896
烙 147804
阱 147723
▁cad 147591
莽 147549
叼 147315
扞 147254
驼 147101
gb 147047
h 146958
庇 146946
娥 146886
沁 146873
酚 146802
炖 146655
藻 146520
焖 146424
no 146022
▁bo 145843
镖 145669
骆 145573
▁live 145524
濑 145398
烯 145327
憎 145255
堰 145220
▁pp 145063
蹬 144804
猿 144751
ps 144737
▁or 144706
呛 144663
蘑 144494
冉 144380
an 144372
拭 144262
禹 143504
耸 143465
睫 143327
吝 142891
珑 142785
盎 142762
癖 142696
棱 142292
焉 142201
ql 142189
聋 142167
祁 142084
怠 142006
煲 141974
樟 141814
恺 141772
橄 141731
翡 141607
颓 141558
茧 141497
郡 141427
呱 140544
秧 140327
▁hell 140247
聂 140155
滔 140124
灼 139903
缉 139857
垣 139848
瞄 139778
ns 139687
荫 139370
翟 139302
炜 139285
黔 139057
钝 138855
嚷 138826
膊 138667
嗝 138608
哔 138271
绚 137950
▁suv 137580
徊 137470
隘 137292
篷 137097
bc 136883
甫 136857
徘 136772
梓 136593
杖 136498
鸠 136459
▁na 136276
宛 136169
茬 136151
▁la 136040
眸 135985
▁and 135939
▁mba 135613
寅 135475
郸 135090
绮 135064
伶 134976
馒 134786
婿 134720
u 134687
隧 134671
棠 134668
砌 134239
蔑 134036
迦 133933
pa 133895
绸 133872
叽 133499
晾 133396
mb 133227
籁 132914
婪 132910
ny 132906
绞 132896
讪 132819
畔 132399
毋 131969
▁facebook 131749
钾 131704
疣 131300
晖 131121
k 131109
▁web 130904
蜕 130883
穗 130762
亢 130714
汶 130414
嗜 130288
跺 130141
矣 130119
粽 129854
悼 129730
▁le 129395
▁note 129047
讹 128867
筷 128391
▁av 127924
沮 127854
▁led 127817
po 127457
熄 127343
捅 127244
ux 126942
臼 126690
悚 126562
隋 126367
辫 126264
斧 126018
倘 125482
藩 125058
脐 125057
ing 124838
袱 124830
垦 124777
盔 124646
▁as 124352
邂 124157
疵 123923
髦 123883
逅 123675
柿 123614
嚏 123608
钳 123525
躬 123503
▁man 123402
▁go 123227
阎 123219
邯 123177
梢 122994
▁for 122965
矶 122822
嗽 122798
唾 122759
锣 122643
磷 122421
▁apple 122352
盏 122215
▁we 122090
帜 122045
艘 122000
娄 121782
倔 121580
胳 121532
ib 121387
糗 121227
▁logo 121224
▁iso 120986
缕 120943
魁 120667
扼 120636
朦 120508
嘀 120404
html 120364
痹 120188
▁pe 120004
氯 119918
拎 119871
拣 119852
▁ac 119811
崭 119526
▁wp 119450
酮 119336
▁net 119303
迩 119140
羹 119013
▁cos 118874
皋 118823
柑 118754
ic 118663
晟 118483
胺 118397
泸 118137
惶 118081
赘 117935
痞 117744
桦 117445
裳 117352
▁ste 117309
檀 117270
▁je 117072
▁co 116989
惭 116986
▁da 116870
▁pm 116474
叁 116472
▁st 116432
褪 116298
▁sim 116132
▁up 115982
屿 115752
奎 115521
▁high 115308
▁ms 115235
旻 115209
芹 115199
晦 115160
▁ct 114847
垢 114845
兢 114735
痰 114722
鸥 114599
漱 114171
鲨 114054
遛 113989
卒 113959
闵 113955
ry 113808
糯 113348
乍 113247
娴 113214
悯 112877
▁hold 112416
鳞 112150
铠 112118
忻 111965
锄 111768
缪 111696
蔻 111597
炬 111485
绥 111313
珀 111126
▁dvd 111103
狡 111069
钛 111003
拧 110994
殆 110833
麒 110661
ber 110646
竣 110603
糜 110428
肘 110159
靳 109916
禧 109842
谛 109770
呲 109461
笙 109400
蒿 109298
晏 109242
驯 109203
咐 109163
祠 109125
▁mi 108958
胧 108928
佟 108866
翩 108584
▁page 108496
陇 108478
涤 108326
窜 107979
萤 107978
灬 107888
漳 107746
斐 107737
匡 107727
丞 107698
▁ar 107668
迄 107423
墩 107383
冢 106994
fc 106600
窖 106376
豚 106032
▁sp 105947
寇 105900
▁wa 105860
臻 105792
▁hd 105749
忒 105685
缤 105665
蓑 105601
阮 105567
栓 105443
洱 105313
da 105287
惚 105161
▁flash 105076
▁pdf 104896
氟 104885
俐 104726
浊 104680
l 104381
萃 104238
俪 104082
陛 103938
▁kb 103910
嬉 103826
簧 103770
淆 103594
lan 103448
渭 103396
汲 103281
辍 103118
▁office 103078
瀑 102843
峨 102719
嗑 102658
泾 102644
▁non 102641
▁sc 102622
▁gi 102570
跋 102563
炳 102408
漾 102387
荤 101742
▁siri 101735
▁opp 101649
拇 101343
▁vc 101192
惘 101099
cp 100891
柚 100850
彷 100783
苇 100716
刨 100588
蔫 100520
烨 100506
仟 100428
▁mb 100326
▁offer 100268
佼 100139
▁sa 100088
扉 100069
▁sm 100016
▁re 99986
荟 99937
咦 99857
诅 99324
钰 99206
惬 99186
慷 99167
撵 99112
渍 99014
箍 99000
▁get 98912
禺 98718
悖 98642
绰 98565
夭 98521
▁hu 98477
洼 98193
丨 97889
鳄 97713
▁hre 97623
吭 97589
▁max 97431
▁se 97117
皖 97011
婕 96907
侬 96745
le 96741
酌 96722
陂 96657
▁show 96610
▁ma 96599
瀚 96456
侥 96329
涅 96213
▁number 96190
厮 96154
螃 95681
噬 95524
曙 95271
虏 95165
嗅 95149
jj 94809
▁sun 94760
▁plus 94666
秽 94622
菁 94530
呸 94366
桨 94338
▁lo 94331
阚 94327
bo 94208
唬 94199
▁girl 94198
娼 94060
缎 93938
疙 93918
镯 93700
冕 93666
潢 93641
饪 93569
廓 93519
膳 93409
咎 93290
▁li 93281
▁im 93175
啼 93138
虔 93068
璇 92785
溅 92776
瘩 92741
慑 92589
锥 92574
▁pa 92300
筱 92295
藕 92271
醛 92134
茗 92000
▁day 91923
蛊 91920
娓 91830
浒 91737
▁low 91575
眶 91495
茉 91402
滕 91382
铬 91129
▁ed 91067
nes 91031
瘟 90930
锂 90848
lv 90752
芋 90595
裆 90504
裴 90378
炊 90368
辄 90319
▁jo 90161
▁happy 90139
宕 90025
柒 90022
烽 90013
臆 89952
璨 89860
睬 89790
ed 89695
襟 89599
轧 89308
帷 89143
汹 89110
酯 89092
铂 88940
阂 88802
杞 88751
蝠 88668
am 88586
胚 88472
▁ing 88449
杩 88287
琊 88079
钨 88071
▁wow 88066
粟 87888
戛 87806
麓 87770
驿 87733
濠 87699
谤 87612
▁if 87500
孰 87235
pv 87229
沌 87227
▁cr 87193
蕊 87183
祺 86929
肮 86817
莆 86779
哮 86757
nike 86675
▁bio 86595
is 86408
檐 86235
诋 86212
瘸 86162
捶 86151
▁ale 86105
闫 85917
墟 85856
莺 85799
▁angel 85751
md 85743
▁on 85708
▁time 85674
姊 85648
喱 85583
pp 85449
徨 85360
梆 85355
匮 85317
诧 85294
酝 85294
蝙 85253
嘤 85012
炙 84997
▁internet 84865
▁rain 84865
咙 84756
栅 84660
菏 84600
▁uc 84515
坨 84472
趾 84368
忑 84310
凋 84249
璀 84144
▁py 84020
懊 83880
亵 83851
捎 83605
淌 83484
衅 83473
▁gre 83168
▁mr 83148
腑 82962
忐 82889
嗣 82887
▁new 82810
肴 82804
▁hp 82721
逞 82702
砺 82665
怔 82648
惮 82514
巳 82404
掷 82167
薰 82151
惺 82064
唑 81923
rt 81878
脓 81806
ft 81563
▁icon 81551
耘 81401
碣 81354
嬷 81347
▁essay 81287
咻 81256
▁sh 81186
坂 80923
凛 80846
▁dada 80824
蟆 80821
沼 80762
斓 80388
璧 80192
赦 80160
in 80134
▁super 79984
▁gay 79908
▁ti 79803
惋 79783
瑾 79718
赃 79505
簇 79361
摁 79249
诽 79054
猖 78946
▁po 78714
蔼 78579
蓓 78541
▁she 78514
柬 78370
灏 78313
忏 78271
黯 77929
赡 77593
▁ap 77273
噻 77204
祀 77142
笃 77090
槐 77085
rp 76892
窘 76628
阙 76568
匈 76505
▁et 76497
dash 76453
卯 76383
芷 76372
php 76340
硒 76218
ment 76146
嬛 76121
on 75997
肽 75933
镰 75901
绛 75837
渎 75669
撬 75617
擂 75614
峥 75575
▁itu 75511
舜 75375
▁window 75334
擒 75223
孚 75203
铛 75025
蔷 74987
泗 74953
亟 74929
昼 74907
戌 74880
铮 74792
挟 74735
篡 74633
骁 74440
妊 74356
▁external 74329
▁bi 74273
釜 74262
辕 74223
捻 74031
▁kis 74026
bg 74012
en 74002
▁mini 73967
锚 73867
坯 73833
霹 73754
▁phone 73583
▁joh 73526
疡 73503
thon 73374
轶 73371
▁si 73346
烩 73217
甥 73190
伎 73070
▁target 73026
瞿 72990
炽 72928
▁root 72889
拗 72860
屹 72833
螂 72823
te 72796
莘 72654
朕 72631
懿 72601
穹 72526
娠 72522
▁np 72517
▁ak 72480
雳 72413
沓 72310
遁 72222
啬 72187
▁http 72107
诬 71726
琶 71702
钗 71702
貂 71645
pi 71589
榕 71439
禀 71365
仨 71360
馍 71325
睇 71145
铎 71096
煜 70864
▁sat 70858
▁will 70785
▁pos 70541
槿 70524
豉 70505
dd 70468
汐 70374
噱 70326
嚯 70261
甬 70250
冗 70089
町 69956
摹 69888
▁he 69834
▁ni 69764
鹊 69699
宥 69570
▁solo 69559
腮 69558
颊 69500
赂 69360
瞥 69238
cd 69233
栩 69224
▁ces 69217
tt 69168
泷 68962
跤 68886
▁data 68610
楞 68585
犊 68354
跆 68193
筐 68124
缭 68058
酪 68049
谩 68042
弛 67950
兀 67938
▁wi 67927
my 67919
sl 67916
榻 67913
悸 67905
岐 67893
痣 67840
▁rap 67813
▁tom 67792
蒽 67746
隽 67705
茸 67599
讥 67550
瓢 67534
痪 67507
▁lumi 67450
ce 67233
▁boy 67093
槟 67021
辗 66941
▁bed 66898
翱 66799
厥 66767
cle 66751
濮 66517
谚 66452
屉 66370
怅 66362
颅 66305
▁seo 66224
庵 66223
nc 66212
碉 66168
顷 66144
紊 66027
▁ea 66005
榭 65943
阑 65913
搀 65851
▁api 65789
▁assign 65745
▁what 65738
ne 65650
锵 65635
曳 65598
china 65535
阖 65425
box 65400
窒 65293
卟 65235
▁ki 65230
▁party 65199
遐 65172
▁out 64928
▁dan 64878
ch 64804
瞌 64753
恁 64714
▁ol 64685
▁mod 64625
▁ora 64492
箫 64486
踹 64421
羲 64409
瑚 64363
++ 64349
礴 64136
摒 64110
熠 63916
▁cha 63869
琥 63825
磋 63794
▁un 63788
焙 63743
荼 63708
踊 63654
▁pay 63493
廿 63464
噔 63423
恪 63403
jpg 63379
殡 63329
珞 63309
濡 63261
剿 63231
矗 63230
to 63229
▁kind 63204
缇 62945
▁mark 62891
抨 62877
▁du 62624
▁air 62596
钵 62591
矜 62564
▁git 62512
鱿 62443
gg 62418
el 62370
寰 62283
邃 62204
▁cai 62065
骼 62000
奚 61967
隅 61887
眩 61760
寐 61711
▁beyond 61576
胰 61568
腋 61341
唏 61337
▁qa 61230
鳌 61055
粱 60940
▁exe 60825
▁ge 60761
鹦 60687
沏 60686
璋 60642
淼 60573
诏 60513
裘 60482
枷 60381
岑 60373
稼 60308
▁home 60182
晌 60050
▁son 60047
▁os 59986
粕 59977
诙 59923
婧 59877
珉 59766
ly 59692
酋 59624
kia 59596
邺 59584
峪 59497
嗤 59491
▁ph 59327
bs 59239
猝 59025
▁pop 58907
幌 58896
湄 58886
▁che 58852
鹉 58803
歆 58794
▁photoshop 58647
be 58552
舀 58536
峙 58505
蔗 58498
黍 58413
枭 58220
▁an 58186
轼 58133
劢 58129
▁mich 58125
庶 58084
诲 58044
炅 57974
笠 57950
▁music 57920
狈 57865
▁link 57856
褚 57855
戎 57836
▁bl 57821
▁server 57806
怦 57699
呻 57667
▁ne 57603
栀 57584
痔 57578
nbsp 57483
涟 57388
▁pl 57268
蛀 57113
忱 56981
▁dream 56972
嫡 56898
迥 56873
▁vb 56798
喳 56713
▁intel 56701
▁function 56506
琛 56443
陨 56406
夯 56389
▁key 56300
祟 56292
猬 56040
髅 55958
涮 55937
▁twitter 55902
▁ka 55789
nt 55780
嗲 55751
撂 55657
ll 55611
岱 55501
阡 55423
▁ml 55379
酣 55326
浚 55297
偎 55285
斟 55248
卞 55229
邰 55225
▁real 55215
▁sz 55173
芮 55047
潦 55030
ck 54916
袒 54894
骷 54890
喋 54845
邸 54823
▁all 54755
枸 54637
nd 54591
rc 54542
莴 54494
跷 54389
▁chr 54276
▁star 54252
▁ho 54069
▁life 54013
▁jack 53991
揖 53984
▁vivo 53956
攸 53857
邋 53828
芈 53671
咫 53669
se 53665
琵 53653
迂 53539
汛 53519
龌 53488
迸 53485
▁oo 53246
▁wc 53137
豌 53108
晤 53080
▁file 53058
羚 53051
▁al 53049
▁free 53047
戮 53045
吆 52905
戊 52863
锰 52840
腱 52801
▁ping 52785
纫 52752
蜻 52746
佚 52739
蜓 52713
▁sharp 52702
俑 52588
ve 52546
骸 52543
宸 52502
▁think 52450
▁nice 52399
峭 52396
▁store 52366
▁king 52303
咆 52292
崴 52051
腆 52023
▁hip 51959
啫 51942
烷 51936
仄 51917
霏 51901
rl 51882
潼 51860
咄 51857
羔 51703
ii 51691
阪 51618
圃 51581
洙 51450
俨 51370
▁_ 51309
昀 51301
衢 51107
蹋 51084
戾 51073
郴 51058
▁bat 51023
ke 50999
蹊 50928
骋 50841
蘸 50716
▁mat 50652
砚 50634
遢 50583
▁young 50522
浣 50518
诟 50453
bd 50440
ho 50387
椿 50329
▁fi 50252
鸳 50252
浜 50228
play 50156
de 50142
or 50091
▁om 49985
砰 49952
ang 49930
▁en 49857
▁just 49690
吩 49670
阉 49630
▁skype 49577
泯 49571
偕 49473
羌 49469
殃 49383
褥 49380
cl 49367
踝 49323
龊 49264
▁mo 49263
蟑 49238
獒 49230
▁blog 49208
祯 49163
馁 48936
▁op 48920
ise 48903
毗 48902
胤 48894
▁twin 48890
锛 48882
诣 48799
馥 48733
骰 48472
▁tp 48357
▁youtube 48340
芊 48288
nel 48229
篆 48204
燎 48178
url 48105
漩 48016
腼 47969
鹭 47969
彝 47902
炕 47851
弩 47765
▁lady 47628
▁ro 47614
ucci 47272
媲 47269
楂 47078
擞 47047
▁surface 47040
砷 46968
▁sky 46924
叩 46895
娩 46872
▁con 46856
惆 46850
鸯 46811
妩 46787
睾 46727
箴 46690
磺 46627
滁 46608
迢 46599
▁can 46582
▁visa 46499
▁ci 46365
▁aj 46321
萦 46296
贮 46269
▁play 46186
▁rom 46156
ar 46126
▁vi 46114
脯 46076
dy 46062
mes 46057
dr 46020
擀 45965
葆 45918
熨 45901
钊 45840
▁yes 45836
觑 45783
氪 45632
翌 45557
▁mate 45525
芍 45489
▁official 45415
匝 45397
饬 45310
甪 45248
啵 45130
▁are 45129
哽 45086
猾 44997
绫 44975
涓 44974
昙 44943
俅 44732
愫 44707
蟒 44664
诩 44516
▁que 44466
痫 44405
▁miss 44381
飚 44339
host 44327
殉 44304
癜 44299
▁touch 44243
挞 44241
愕 44221
ton 44213
搽 44175
肄 44172
滘 44162
诃 44090
椭 44086
腩 44032
▁house 43959
撅 43942
荀 43911
▁dell 43908
樵 43826
▁ao 43813
唆 43658
▁ra 43611
▁auto 43578
苓 43454
▁master 43402
xus 43346
玟 43299
秆 43261
嗖 43254
谙 43223
懑 43147
mat 43121
鹃 43090
锢 43075
胱 43051
▁world 43012
酗 42973
vid 42955
绢 42878
▁car 42853
sp 42833
跻 42833
▁es 42804
攘 42778
烬 42770
胭 42749
掖 42746
▁pr 42559
呷 42538
拴 42522
曜 42519
踵 42517
恃 42514
膛 42462
▁call 42425
狩 42410
捯 42320
皿 42301
microsoft 42287
ty 42241
▁vista 42150
弋 42130
▁kg 42086
▁ch 42079
▁toto 42073
稷 42061
▁that 42031
嗳 41946
侏 41936
喏 41924
baby 41910
▁sap 41828
茁 41823
笆 41774
▁ji 41665
秸 41661
衙 41660
▁end 41611
▁power 41556
痊 41548
栾 41547
毓 41541
佘 41514
翎 41445
羿 41420
瓯 41378
岷 41293
忡 41287
孬 41221
▁fa 41185
pod 41125
ado 41114
▁your 41096
▁name 41030
嘈 41023
▁rock 40971
癣 40946
▁les 40904
淞 40869
簸 40852
▁spa 40816
em 40815
vc 40789
line 40753
溉 40695
掇 40637
搪 40619
匾 40542
pal 40420
螨 40313
苷 40311
裱 40263
泱 40257
徙 40195
谔 40183
慵 40092
孢 40030
▁oh 40024
▁har 39952
ley 39941
▁edge 39836
嫦 39809
磐 39739
胥 39732
熹 39712
ds 39697
man 39677
缜 39661
闰 39622
▁best 39606
▁pra 39606
▁nh 39550
悴 39466
瑙 39466
▁mar 39437
涝 39300
睢 39275
贻 39271
sh 39218
憔 39130
▁box 39112
爻 39100
筠 39098
kk 39004
丿 38975
缈 38967
▁internal 38816
▁gl 38775
漪 38712
竺 38703
飒 38689
镍 38685
▁part 38676
札 38640
▁from 38638
▁who 38609
缥 38551
涧 38546
▁vo 38484
▁sy 38149
▁el 38106
抿 38076
▁studio 38065
嫔 38052
吠 37999
▁this 37983
戟 37982
鲫 37981
龈 37922
挎 37849
薏 37716
谧 37691
宦 37659
▁paper 37596
▁etc 37590
泓 37527
fa 37466
fps 37395
▁fb 37382
▁not 37345
醺 37342
塾 37340
▁but 37260
亘 37240
▁bp 37235
遴 37224
躇 37201
炯 37179
▁dh 37177
fox 37122
▁ha 37111
涪 37104
煸 37071
汴 37010
拈 36990
砾 36943
厝 36904
漯 36904
拮 36896
book 36860
坻 36828
ver 36763
▁wrap 36755
砥 36708
ker 36692
榷 36690
gue 36675
▁hmm 36659
▁fly 36636
px 36590
汞 36570
赈 36536
璞 36530
▁gar 36525
垩 36468
踌 36454
we 36431
赊 36429
铉 36262
es 36257
▁ama 36252
荚 36228
hk 36226
皙 36196
虱 36189
暄 36187
▁corta 36184
▁mix 36150
莪 36024
苒 36021
瑛 36008
乜 35948
篓 35935
ul 35900
▁heart 35877
蜚 35850
▁image 35823
go 35796
囡 35794
蝈 35793
蛰 35763
猕 35734
▁care 35704
蠕 35653
胯 35618
溧 35602
毂 35388
攥 35342
挝 35281
▁coco 35272
偃 35249
▁su 35242
匕 35231
颌 35212
lab 35185
褂 35167
▁beat 35159
▁ost 35147
ui 35132
泠 35128
▁mama 35112
溥 35099
outlook 35079
咿 35065
▁fx 35052
昱 35049
蚤 35043
腚 35039
▁fo 35000
▁fans 34983
涎 34981
xml 34946
ity 34933
▁model 34929
▁list 34861
娲 34836
▁ba 34819
骡 34790
蚝 34743
▁dis 34728
蹿 34720
沭 34701
瘠 34665
▁char 34639
衩 34498
▁demo 34405
谏 34401
▁open 34347
怆 34336
玷 34330
鸢 34259
恙 34235
蓟 34209
寮 34202
箔 34190
翊 34142
▁over 34042
▁eva 34016
ow 33908
捋 33886
zon 33885
蕙 33875
骛 33866
覃 33851
膺 33814
啷 33772
▁bit 33771
傀 33679
淬 33614
▁cool 33603
▁feel 33554
痿 33501
剽 33489
wi 33487
馄 33472
哧 33458
▁mid 33423
轲 33409
▁ko 33402
▁lu 33364
辘 33359
▁blue 33357
啄 33333
楔 33296
▁sorry 33286
姣 33275
恿 33254
▁javascript 33252
蛟 33243
垭 33233
▁galaxy 33224
▁alt 33157
瞰 33156
吒 33147
▁ke 33112
▁moto 33103
nn 33088
▁ju 33080
卅 33068
▁los 33029
儡 33015
▁bu 32984
眺 32971
噌 32967
铿 32927
蹴 32926
臧 32883
膘 32828
藐 32815
驮 32749
袅 32746
谕 32725
▁step 32724
▁sci 32714
▁mg 32664
▁red 32526
淅 32447
癞 32404
雹 32376
饨 32336
▁te 32310
娆 32294
clip 32282
杵 32275
瓮 32239
▁don 32223
▁with 32217
亳 32176
▁game 32173
▁fire 32170
ted 32091
氰 32081
▁gh 32071
铢 32062
▁true 32025
嚓 32008
▁ga 31997
▁jy 31977
▁kw 31970
圩 31959
▁ben 31954
莅 31939
▁line 31938
蓦 31934
▁sf 31901
ix 31896
壑 31886
▁look 31870
▁rose 31865
勐 31855
岖 31807
▁gaga 31796
榔 31753
▁wan 31652
▁bur 31628
荏 31627
bay 31613
珈 31575
▁rs 31508
▁sam 31500
榈 31467
滦 31449
锲 31418
ig 31413
唰 31406
焯 31396
ven 31371
▁online 31364
▁hop 31319
cy 31266
▁gc 31258
▁club 31225
搐 31209
鼬 31177
犷 31165
瀛 31080
皎 31075
隍 31072
俾 31060
▁why 31054
▁pt 31044
▁pin 31028
▁shi 31020
jd 31004
▁like 30993
骐 30972
椁 30957
嗔 30937
鞅 30887
ga 30883
婺 30833
▁dll 30832
▁college 30817
▁instagram 30812
▁ff 30807
▁ee 30763
盂 30621
▁dr 30585
▁db 30565
诿 30535
萏 30440
铐 30386
湮 30316
沱 30290
ome 30271
皈 30242
瑄 30239
蹉 30198
▁yo 30144
▁dos 30126
▁bill 30123
▁level 30102
筏 30084
祉 30061
扈 30029
糠 30000
啾 29930
纂 29881
遨 29834
lor 29773
▁doc 29772
丕 29764
馏 29763
摞 29716
▁war 29691
▁polo 29684
▁idea 29679
骥 29658
瘀 29612
憩 29599
▁email 29553
▁project 29515
▁her 29478
湉 29476
▁ah 29428
▁school 29363
咣 29347
沅 29345
▁lan 29281
疱 29270
瘁 29256
▁wo 29248
▁night 29209
tion 29180
rry 29161
鹄 29113
▁bar 29106
png 29071
▁mail 29017
獗 29008
犒 29005
谑 28980
桢 28949
棣 28929
▁tay 28904
邛 28852
饽 28833
奄 28784
type 28742
▁type 28704
鞘 28691
糅 28679
坍 28658
漕 28655
▁face 28612
桀 28600
叱 28583
buff 28581
▁code 28559
que 28531
荞 28523
钜 28515
渚 28506
烃 28473
拄 28458
mi 28406
婢 28384
飓 28343
▁christ 28330
浔 28242
▁team 28226
冽 28122
▁running 28115
ts 28092
▁only 28089
跶 28033
dk 28032
▁bai 28027
bi 27947
▁edu 27937
饕 27924
扪 27894
mk 27883
▁ec 27856
▁system 27818
纭 27786
鄞 27752
蜷 27737
酰 27732
▁black 27726
▁th 27722
▁mit 27704
▁jim 27696
袂 27690
▁pass 27660
al 27624
徵 27622
▁ve 27612
賸 27562
涣 27522
▁van 27518
摈 27516
涿 27474
鬓 27438
du 27432
▁may 27416
max 27393
崂 27386
quot 27385
蚓 27362
讴 27340
獭 27286
ci 27280
镳 27258
us 27148
▁more 27142
▁cu 27135
▁cl 27096
奂 27078
▁kimi 27067
蜇 27051
碚 27030
▁how 27019
ubuntu 27017
fl 26992
▁junior 26989
▁br 26976
螳 26960
▁sha 26947
berry 26902
co 26897
魇 26886
仞 26873
by 26850
兖 26816
▁ala 26800
玑 26791
腴 26779
枰 26754
▁zu 26737
do 26699
▁arm 26690
蔺 26678
帚 26670
彗 26629
帼 26619
鳝 26598
▁coach 26576
▁gra 26573
蚯 26502
堑 26466
▁cut 26464
蕃 26431
▁group 26427
肏 26402
▁say 26389
唁 26382
▁tel 26327
踞 26323
▁pet 26300
颉 26283
▁fe 26255
茱 26245
杳 26224
恣 26176
▁watch 26123
▁shift 26122
鸾 26121
琰 26101
儋 26049
tty 26044
蛹 26034
th 26001
▁bang 25983
▁forever 25977
偌 25976
ney 25926
臊 25926
ie 25894
▁pi 25872
铣 25861
孑 25855
荨 25852
耦 25826
臃 25810
祢 25800
谆 25792
▁test 25791
颦 25756
▁spring 25737
眈 25721
缄 25690
▁min 25667
蜥 25649
讧 25628
mas 25626
缮 25622
▁va 25581
硼 25575
▁case 25557
▁amp 25531
▁zero 25522
骅 25444
▁song 25427
徕 25405
莒 25352
▁work 25332
▁sg 25271
▁adidas 25269
岌 25266
▁ng 25247
捺 25243
庾 25233
▁chi 25210
坳 25167
瘙 25140
▁tim 25029
pl 25019
夙 25006
妲 25002
蜈 24986
▁var 24977
笈 24962
▁leader 24905
蟾 24903
▁cv 24892
餮 24833
▁mari 24825
罔 24824
▁tat 24812
跎 24811
▁english 24794
悻 24794
▁hot 24751
vidi 24738
嵊 24730
▁boot 24715
钬 24708
姝 24697
撷 24675
瞟 24604
劾 24594
蛎 24562
▁boys 24561
shin 24547
▁text 24531
脍 24524
lc 24510
▁ts 24491
▁sina 24470
▁service 24447
▁esp 24425
▁fan 24415
▁smart 24415
▁via 24393
栎 24365
ra 24347
犟 24345
▁money 24316
钣 24265
觊 24207
潺 24201
▁city 24198
gp 24161
▁bad 24161
鬟 24151
嬅 24128
▁wid 24120
佗 24113
咤 24070
涸 24009
▁doctor 24004
觎 23989
▁za 23967
ware 23949
踱 23937
▁sk 23934
颍 23931
▁peter 23908
暹 23896
moon 23881
note 23867
蠡 23843
▁pap 23833
霎 23824
▁access 23821
lie 23791
罄 23763
琍 23761
砼 23752
赝 23734
▁run 23695
芡 23671
ng 23670
▁year 23665
hub 23624
▁xi 23624
▁view 23607
婵 23607
茴 23605
▁check 23488
涞 23479
斡 23455
幡 23439
▁add 23399
▁mobile 23354
莠 23348
蹩 23344
▁del 23327
毡 23323
蝗 23284
▁now 23247
鸵 23219
▁sata 23199
峦 23138
cad 23087
▁down 23068
煦 23060
▁wang 23036
吮 23014
铆 22968
漉 22953
镕 22945
鳅 22941
弑 22935
焱 22934
戬 22917
▁kv 22900
▁jar 22860
妤 22860
琏 22852
▁ri 22817
▁mer 22812
纨 22808
窿 22796
斛 22780
蛐 22747
郫 22726
▁summer 22722
蝌 22718
▁sv 22717
▁per 22708
' 22687
蹂 22628
镂 22625
▁zara 22590
▁zip 22579
▁ut 22575
徉 22562
徜 22514
▁string 22513
娑 22456
▁have 22414
鹜 22408
▁wind 22383
▁yg 22371
▁sl 22365
蚪 22358
樨 22355
孺 22315
▁too 22296
罂 22291
▁god 22275
▁hen 22254
躏 22245
桎 22208
▁au 22195
傣 22195
罹 22171
咝 22138
蟠 22136
cho 22127
▁way 22115
袤 22112
et 22102
▁sir 22061
▁toe 22059
赅 22047
lina 22035
瘴 22034
▁af 21960
▁vivi 21955
ep 21939
les 21922
▁jazz 21916
▁qe 21902
▁west 21901
抡 21900
▁ir 21898
珏 21886
盹 21880
▁here 21875
噼 21853
梏 21847
俚 21835
裨 21821
狒 21817
▁let 21784
蛳 21768
奘 21755
囔 21704
ler 21702
▁pu 21698
邬 21684
踮 21655
▁iu 21648
▁dance 21620
der 21593
铀 21589
痂 21574
csol 21499
旮 21490
狞 21481
bf 21477
la 21461
帛 21449
rd 21448
谗 21433
隼 21403
泫 21381
▁off 21359
▁nasa 21319
▁first 21307
▁heb 21286
镭 21232
▁news 21226
簪 21225
▁ending 21222
▁smile 21219
▁joy 21110
娣 21096
蹶 21091
mp 21087
惴 21066
st 21043
▁easy 21026
mon 21019
忿 21013
箩 20970
▁copy 20968
粼 20968
land 20962
鄱 20959
碁 20954
槌 20914
▁oled 20909
hl 20907
▁lucky 20906
衲 20897
▁girls 20896
骞 20892
▁bra 20880
恻 20862
ia 20830
濂 20791
嵘 20779
挛 20769
▁set 20720
▁sweet 20716
渥 20704
泞 20703
侗 20692
嬴 20657
篝 20654
▁ef 20628
抻 20605
▁kell 20586
蹒 20578
▁shine 20570
tk 20567
xa 20545
▁ella 20544
yo 20518
纣 20518
▁frank 20513
锏 20478
▁tai 20460
攫 20456
▁map 20439
▁yi 20417
▁tao 20391
▁science 20371
ff 20362
▁talk 20354
鳗 20345
hhh 20324
痨 20298
溴 20291
掣 20287
▁mh 20272
▁fifa 20257
鍜 20247
骊 20241
▁abs 20238
▁where 20237
▁ever 20230
▁user 20208
cloud 20207
芪 20205
蜴 20191
ard 20186
▁business 20169
▁jump 20156
▁ug 20130
蜒 20107
戍 20097
▁back 20073
▁uu 20073
淖 20051
▁main 20035
▁ya 20034
▁local 19991
cat 19967
▁null 19943
▁long 19932
▁rich 19929
剐 19922
藓 19917
跚 19911
骜 19894
▁fashion 19887
睑 19885
晔 19880
▁see 19872
痉 19840
rx 19838
▁update 19837
锭 19786
瞠 19783
鲵 19748
hop 19745
叟 19743
▁cat 19732
bert 19728
柾 19685
pec 19666
痧 19657
缰 19638
smith 19620
▁player 19603
▁act 19589
蚣 19573
▁honey 19570
貔 19549
▁print 19534
▁visual 19527
矾 19507
垠 19500
潞 19492
柩 19481
刽 19463
砝 19443
芩 19437
▁bh 19433
髻 19432
▁book 19382
狰 19377
▁make 19376
▁cho 19370
▁ih 19318
缨 19316
柘 19309
▁cet 19302
绡 19290
▁io 19289
cket 19272
hang 19268
▁made 19247
▁state 19217
li 19210
貅 19185
▁park 19166
杼 19155
醍 19087
▁die 19075
▁story 19054
ddy 19016
谀 18999
邳 18991
鲲 18988
kevin 18986
皑 18970
▁come 18968
▁content 18938
饷 18925
▁value 18894
chat 18878
ice 18869
嘹 18861
▁pad 18845
雎 18840
▁post 18813
▁shop 18805
珩 18798
htm 18794
fo 18786
▁jen 18739
谟 18734
趸 18703
▁white 18664
▁pre 18643
xia 18641
硚 18639
咛 18622
▁ag 18605
筵 18584
▁report 18576
尕 18565
▁select 18549
▁cas 18530
nie 18524
仃 18524
暻 18499
▁title 18495
潸 18494
胛 18486
醐 18478
蚱 18474
▁gu 18421
board 18411
skt 18408
▁ly 18392
徇 18392
key 18360
孪 18350
time 18344
me 18340
▁dia 18336
▁two 18326
▁raid 18320
day 18294
阆 18286
▁very 18284
▁ei 18278
▁nick 18238
hh 18210
▁maya 18202
阈 18194
▁sr 18172
▁design 18165
胗 18159
崃 18150
蜿 18137
▁take 18113
▁ngo 18079
黝 18071
ning 18059
啕 18038
▁ram 18021
窈 17995
聿 17991
蚩 17984
颚 17969
▁log 17955
鼾 17934
绔 17917
yahoo 17871
▁col 17835
▁hao 17831
▁beautiful 17825
嘣 17811
鄢 17800
▁dy 17797
睽 17786
颧 17773
荥 17771
▁ide 17769
▁div 17722
op 17688
▁ray 17671
鳍 17623
pper 17615
▁nano 17613
▁hero 17602
囱 17595
砭 17578
▁adam 17567
work 17565
jm 17524
逵 17509
佯 17498
搡 17453
▁right 17443
▁index 17437
▁last 17433
▁seven 17433
毽 17399
罡 17399
鞑 17394
▁tho 17385
▁error 17374
lice 17350
谄 17318
re 17304
绾 17292
杷 17290
枇 17286
▁color 17280
▁job 17276
▁manager 17270
▁? 17268
珅 17263
▁has 17260
揄 17251
▁ry 17232
▁enjoy 17227
cia 17208
霁 17202
湍 17173
▁media 17161
揩 17152
▁eos 17150
width 17143
▁size 17141
辊 17139
▁light 17125
▁tl 17115
▁art 17106
▁next 17105
蜊 17101
湎 17086
▁pink 17059
▁walk 17056
敝 17040
▁keep 17033
▁lost 17033
鹑 17032
si 17010
▁got 16998
菅 16978
▁gal 16969
▁hey 16957
囿 16942
rah 16941
▁dw 16900
▁ime 16895
▁action 16880
搔 16880
揶 16876
旖 16851
墉 16829
▁kate 16823
旎 16808
iam 16763
▁beta 16761
▁bob 16752
▁radio 16743
▁well 16741
▁core 16735
▁session 16730
镊 16714
邝 16713
▁flo 16686
▁fuck 16675
▁vol 16672
▁tips 16669
谥 16653
▁uzi 16652
桧 16622
▁secret 16621
ki 16612
伫 16601
▁admin 16593
珺 16565
▁apa 16562
▁old 16552
▁cy 16542
▁was 16536
fs 16518
蜢 16498
郜 16490
mpa 16479
觐 16464
婀 16457
▁ova 16445
瞑 16426
钴 16412
▁bla 16409
唷 16366
绉 16340
▁gem 16337
jl 16332
▁kt 16317
懋 16303
▁never 16288
▁flag 16280
疸 16275
▁tr 16265
jp 16255
▁dk 16251
ssica 16249
▁geo 16243
▁unit 16210
璜 16165
馀 16159
way 16156
▁stan 16143
冼 16102
幄 16098
熵 16091
邕 16089
▁return 16081
芎 16071
掳 16070
▁pen 16063
▁sing 16056
▁lisa 16038
俸 16027
▁tab 16017
ham 16015
▁host 16013
▁mic 15999
ther 15997
▁friends 15989
鲅 15954
鹌 15915
痤 15910
▁winner 15905
▁when 15904
▁voi 15891
▁find 15879
旌 15855
▁bili 15854
ffa 15839
net 15834
▁kar 15834
窕 15804
彧 15798
▁little 15786
砣 15770
don 15758
▁fl 15751
▁bj 15735
▁leo 15716
倜 15716
▁fun 15704
纰 15703
▁mad 15701
mos 15697
▁form 15686
楹 15680
▁apk 15672
ward 15663
碜 15658
▁idol 15648
▁tu 15647
vis 15646
ast 15639
麝 15612
▁yeah 15597
▁ken 15572
▁dog 15557
笺 15540
雉 15537
岫 15536
箕 15533
▁juli 15530
伢 15489
轱 15480
锹 15470
▁video 15469
▁start 15461
▁gap 15442
樽 15422
艮 15420
▁green 15393
▁fighting 15375
▁der 15372
▁magic 15361
鲶 15361
lin 15344
膈 15329
醚 15322
pha 15320
镌 15320
蛔 15318
▁tag 15280
燮 15272
bili 15256
陟 15256
▁az 15226
fn 15222
荃 15215
▁par 15208
▁gai 15198
▁rar 15155
ers 15151
▁share 15131
稞 15124
唢 15119
麾 15119
▁ver 15109
哐 15104
忖 15104
荠 15102
jing 15080
朐 15064
che 15015
馊 15012
cu 14992
phi 14984
蟀 14982
sco 14978
ek 14970
▁bir 14970
铰 14969
▁mars 14963
傥 14960
弭 14947
shell 14937
▁+ 14932
vin 14915
▁after 14914
炔 14904
蜉 14894
▁andre 14892
▁water 14887
fi 14878
钎 14859
晁 14849
▁market 14836
蜃 14834
谲 14832
ibo 14826
▁fate 14810
▁spark 14784
旯 14778
▁marc 14775
▁mine 14766
▁administrator 14760
han 14735
誊 14735
hu 14711
▁bank 14703
茯 14703
ah 14702
▁sub 14685
▁voa 14676
郧 14656
囵 14637
滓 14608
耒 14608
汩 14605
洵 14605
▁hit 14597
▁cookie 14594
▁dl 14587
疝 14580
▁program 14566
狍 14552
▁jos 14537
叵 14529
蟋 14512
uis 14510
nese 14493
ron 14485
▁solid 14473
▁which 14470
馗 14456
▁prince 14443
鹂 14441
▁ud 14436
▁client 14417
▁ban 14415
侑 14413
▁pan 14399
▁soul 14391
炀 14363
▁hy 14349
谌 14337
▁ye 14320
at 14316
eve 14313
ico 14306
砒 14301
xx 14270
▁dar 14266
lly 14265
pf 14255
▁pose 14251
飕 14249
诌 14239
▁double 14232
▁switch 14229
痢 14225
▁sex 14215
髋 14187
盱 14181
jun 14176
麋 14173
abb 14165
蹙 14162
▁jane 14141
▁quote 14118
驸 14101
▁ny 14037
ior 14023
▁yang 14002
▁people 13986
▁tw 13976
▁center 13965
ine 13963
▁friend 13947
▁elle 13937
萼 13930
▁nature 13929
▁site 13926
蕨 13917
灞 13913
黠 13901
饴 13874
▁od 13863
▁han 13850
痱 13841
胫 13817
ston 13794
▁research 13775
rio 13766
衮 13735
sc 13727
hm 13716
▁fu 13709
弼 13702
rge 13701
▁brown 13697
▁anna 13696
▁head 13683
洮 13681
gmail 13660
▁load 13660
▁cal 13646
▁ati 13645
ling 13639
ter 13626
唛 13622
▁under 13603
焘 13599
楣 13581
▁explore 13570
ks 13569
▁shu 13564
砧 13555
ure 13553
▁mag 13539
▁aja 13527
饯 13527
▁allen 13514
▁false 13512
▁crazy 13510
甯 13508
flix 13503
眙 13490
▁activity 13489
榛 13485
豺 13475
囫 13464
▁point 13456
dot 13455
▁control 13454
▁block 13446
▁try 13440
▁oc 13436
oo 13432
▁build 13420
彳 13403
▁jord 13400
est 13368
镣 13367
bby 13363
ster 13359
▁len 13331
▁family 13327
▁flow 13326
堇 13324
▁nu 13309
▁uk 13309
舛 13309
▁snap 13301
龋 13284
锺 13250
▁table 13241
跄 13240
迤 13226
▁review 13218
oc 13208
point 13206
郓 13188
砀 13179
踉 13179
呓 13172
▁london 13166
▁public 13165
cky 13158
▁bv 13155
less 13135
嵇 13126
靥 13113
▁eu 13102
▁push 13087
氙 13080
蝣 13073
鹈 13071
iel 13067
ol 13055
▁rub 13054
▁social 13044
▁sne 13042
ford 13022
牦 13022
▁btw 13019
▁know 13014
▁wish 13014
铤 13006
▁nova 12994
琨 12975
▁og 12974
▁cost 12963
殓 12924
菡 12918
瓴 12904
▁cross 12888
竽 12877
csi 12873
澧 12866
鹕 12860
麸 12854
lock 12848
nico 12848
▁river 12846
▁um 12835
肱 12835
诨 12824
▁cam 12808
牒 12803
▁once 12790
▁cento 12780
▁mon 12773
萋 12756
臾 12749
▁read 12742
▁always 12731
▁san 12731
▁bin 12729
咂 12729
耄 12720
▁cin 12712
▁sin 12707
▁lock 12706
扦 12705
▁lyn 12692
郦 12692
▁thank 12670
氦 12636
▁tid 12634
溟 12632
▁sum 12625
罘 12612
踽 12612
▁bas 12609
玧 12606
▁card 12589
hen 12587
rf 12584
▁opera 12579
il 12559
羸 12552
▁help 12539
▁plan 12538
▁victoria 12526
匍 12513
粳 12498
▁clan 12491
哏 12480
van 12464
捌 12464
▁clo 12462
▁ball 12457
夔 12452
▁oli 12450
▁while 12447
tive 12445
▁quo 12443
momo 12442
▁cod 12442
珐 12430
▁ze 12429
耋 12420
so 12409
tes 12408
邡 12403
▁sexy 12390
钯 12390
佻 12383
蝼 12380
▁chu 12378
偻 12376
綦 12364
▁recovery 12358
▁sad 12350
醴 12350
拚 12331
nia 12328
▁body 12325
▁there 12323
缙 12307
▁cold 12294
▁american 12287
▁bri 12276
▁sand 12276
▁wonder 12266
▁sar 12254
▁cap 12253
羟 12248
侪 12243
▁ini 12236
匐 12226
颛 12217
▁ru 12206
bing 12192
cca 12189
橇 12189
lp 12188
▁yan 12179
chy 12168
gie 12165
褓 12161
▁date 12146
▁carry 12137
ls 12132
郅 12130
茏 12128
ha 12119
▁gan 12117
鳕 12095
▁ev 12083
▁memory 12077
▁sheet 12068
▁band 12060
腓 12044
幔 12039
▁path 12035
薅 12029
kin 12026
铵 12004
▁marketing 12002
▁about 12000
nya 11995
鲈 11995
jk 11990
▁thanks 11975
▁input 11957
▁jin 11951
▁management 11950
▁base 11948
苡 11948
垛 11941
ri 11929
vy 11924
襁 11923
▁break 11915
苋 11914
▁pia 11911
ion 11910
▁close 11907
nad 11884
▁kim 11879
▁modem 11872
▁space 11857
孱 11855
▁morning 11853
▁oz 11848
▁network 11838
▁bet 11834
哙 11816
訇 11803
▁ul 11799
聒 11793
赳 11779
▁earth 11769
厩 11763
▁xo 11728
钼 11700
▁tra 11693
▁bull 11682
gui 11673
▁ky 11671
▁hun 11643
芾 11630
魍 11629
▁alan 11625
mond 11613
▁ros 11613
ni 11612
ee 11611
▁express 11602
▁need 11595
▁wiki 11582
▁great 11578
▁count 11561
▁again 11559
▁order 11559
▁chapter 11557
▁account 11548
▁fat 11535
▁road 11516
blue 11505
▁yor 11468
葭 11445
om 11444
▁skin 11441
▁sales 11425
诘 11421
▁acer 11410
▁vin 11406
▁include 11404
▁ob 11392
埂 11386
▁hard 11378
kz 11374
璎 11370
mix 11368
rita 11364
▁source 11354
night 11349
ips 11340
▁dz 11340
▁boom 11335
咲 11334
mail 11333
啜 11312
▁nas 11308
▁cosmo 11303
chel 11301
ey 11301
枞 11294
▁else 11293
氲 11293
nce 11292
硪 11278
▁roll 11270
捱 11262
▁final 11245
▁cand 11244
龅 11240
▁mind 11238
佝 11235
▁trump 11221
苣 11215
jo 11213
呤 11205
▁vocal 11199
▁stop 11190
▁cover 11186
耷 11182
藁 11171
db 11168
▁neo 11166
cla 11149
ence 11148
藿 11120
▁eg 11115
怄 11108
菀 11106
▁perfect 11086
▁guest 11038
▁qi 11029
▁mor 11020
▁original 11020
氤 10993
for 10985
魉 10979
▁channel 10978
▁gw 10973
▁room 10953
▁mua 10939
▁object 10932
▁believe 10923
珲 10922
嵋 10915
鸨 10913
stone 10910
▁sec 10903
▁mos 10884
▁hill 10883
酞 10870
fer 10869
▁shopping 10862
▁cup 10851
▁origin 10851
聩 10848
肓 10848
▁str 10842
▁want 10842
燊 10835
cent 10833
force 10831
逶 10817
ph 10805
藜 10790
犄 10786
蕲 10780
▁battle 10778
宓 10777
浠 10777
刍 10771
桉 10753
瘘 10750
蓥 10741
鸩 10738
掸 10732
獠 10729
剌 10714
▁emin 10712
mo 10709
悱 10708
遑 10708
▁robi 10707
martin 10692
▁age 10687
犸 10684
鸪 10683
▁zoom 10678
豇 10675
巽 10672
▁ota 10661
▁sos 10661
陲 10658
娌 10653
▁tina 10647
桠 10625
▁luck 10609
鲑 10605
▁jul 10598
▁tree 10593
歙 10577
庖 10571
▁days 10566
wn 10555
▁nk 10554
▁yum 10530
▁kn 10529
睨 10528
down 10519
per 10491
鹧 10483
▁ay 10478
cer 10473
esc 10473
钏 10456
滢 10453
▁chan 10452
hb 10451
嗬 10449
氩 10447
▁full 10445
craft 10444
▁monster 10439
▁sig 10436
蛭 10435
萸 10428
via 10427
▁vita 10427
▁brand 10424
▁sound 10410
▁tang 10410
▁pas 10395
牍 10392
▁learning 10389
▁stay 10386
▁ikon 10370
鲟 10355
妯 10352
锆 10349
live 10345
bow 10344
觞 10332
苜 10322
▁classic 10318
town 10313
赓 10309
郯 10308
▁delete 10294
吡 10294
▁cell 10293
row 10290
▁basic 10287
靼 10268
▁finance 10254
nica 10248
star 10248
▁shadow 10234
▁raw 10223
▁fall 10219
sher 10213
wordpress 10213
邈 10208
啮 10206
▁ku 10202
▁fr 10200
腭 10200
糍 10193
▁fish 10190
ary 10187
▁breaking 10181
▁disco 10181
▁drama 10178
▁better 10176
▁cali 10169
砗 10144
跛 10137
hotmail 10129
▁react 10116
sys 10112
磲 10112
body 10109
▁anyway 10108
▁north 10101
掬 10082
▁hua 10080
▁bot 10079
▁company 10069
▁melo 10068
绻 10062
▁bei 10046
bridge 10042
ger 10031
▁sara 10031
膑 10015
▁cao 10007
▁wy 10006
▁fred 10001
岀 9999
▁heaven 9997
舐 9987
怵 9964
▁xu 9952
vi 9945
▁sei 9941
蜍 9928
嘢 9919
gi 9917
碴 9916
芃 9913
▁samsung 9911
▁fast 9909
▁everything 9908
▁hope 9907
map 9895
纾 9895
佃 9894
葚 9865
鲢 9856
▁ape 9855
汨 9848
珙 9847
▁evo 9842
▁https 9833
缱 9825
ak 9822
沵 9798
▁wil 9796
▁phi 9763
鼹 9757
game 9753
▁deep 9742
顼 9732
酐 9709
▁law 9700
ving 9679
侩 9674
▁yesterday 9661
豢 9646
蓿 9645
蒹 9644
娉 9641
▁ava 9635
颔 9624
rel 9623
▁org 9622
▁eye 9619
牠 9619
▁bon 9606
▁beauty 9601
▁xin 9594
ka 9572
pid 9566
▁mall 9539
▁brit 9536
▁hug 9516
▁zo 9500
▁wat 9497
▁ang 9493
▁byd 9491
煨 9483
draw 9479
畲 9478
pta 9476
沣 9465
▁photo 9462
▁any 9455
▁spot 9453
ify 9449
xan 9443
膦 9442
▁tia 9441
▁clar 9438
蘼 9434
▁info 9428
▁drago 9418
▁cca 9413
▁download 9411
rick 9400
▁buy 9398
ncy 9385
▁exchange 9385
圻 9371
▁active 9360
悌 9351
茕 9348
▁tj 9331
ut 9318
圌 9316
▁sasa 9304
嗟 9304
▁wall 9299
撺 9295
猷 9292
鎏 9279
hhhh 9276
ings 9267
▁gate 9265
▁ann 9262
dele 9260
light 9259
ate 9255
忤 9254
id 9249
▁self 9245
獐 9243
锷 9242
square 9241
▁follow 9227
▁price 9218
elle 9198
▁premier 9191
▁kan 9189
▁search 9184
潋 9183
澹 9178
闾 9171
▁safari 9160
fy 9158
佤 9153
锉 9151
殚 9119
▁cloud 9118
ily 9114
▁den 9114
磡 9091
▁chlo 9089
▁blo 9068
ina 9066
贲 9061
▁food 9058
桅 9057
joy 9053
▁ez 9052
黟 9050
▁sea 9047
▁edit 9039
ov 9038
hong 9031
涐 9023
rr 9022
胄 9017
▁award 9016
▁ten 9015
sa 9014
荻 9013
ku 9006
▁bil 9001
咘 8997
sper 8992
▁some 8992
琬 8990
▁fair 8973
垚 8964
▁enter 8961
昴 8960
▁hele 8953
▁international 8927
let 8921
▁mode 8918
▁doing 8917
▁micro 8914
嘌 8909
羧 8904
▁vie 8895
ti 8888
▁drive 8887
▁tell 8868
▁global 8835
轭 8835
孀 8821
▁zi 8810
▁special 8802
▁pho 8799
▁tour 8773
刎 8773
well 8760
钒 8750
滟 8736
夥 8735
▁infinit 8734
▁pic 8734
ap 8728
name 8728
薹 8728
▁whatsapp 8718
▁today 8717
蝰 8715
▁change 8712
▁kh 8695
玳 8651
die 8649
▁fit 8649
nder 8644
▁linda 8633
▁sus 8632
▁gold 8630
姹 8630
vil 8628
ubi 8600
蓁 8600
▁sch 8582
尻 8582
▁gear 8574
▁season 8573
倏 8573
▁snow 8572
殄 8567
▁hand 8566
鏖 8565
恸 8559
▁study 8555
▁times 8555
▁boa 8546
▁dom 8545
▁three 8545
ris 8539
▁version 8538
▁simple 8533
莜 8533
com 8530
ald 8524
tz 8523
scott 8520
俎 8520
囍 8517
▁boost 8514
裟 8508
▁jun 8501
稔 8500
rav 8497
▁japan 8492
缢 8490
cas 8487
▁match 8480
荪 8476
▁turn 8466
▁prime 8463
▁request 8462
▁four 8457
澍 8455
▁thu 8452
namespace 8451
褴 8448
驷 8445
▁num 8444
滂 8442
▁student 8441
▁five 8432
▁sense 8431
儆 8427
tor 8424
徳 8422
▁metal 8418
佷 8415
▁future 8405
▁kol 8404
▁lie 8403
▁pac 8383
▁presentation 8369
▁maybe 8365
▁ada 8363
▁street 8361
▁alone 8360
▁our 8359
▁men 8358
▁because 8353
drive 8350
▁drop 8341
▁connect 8337
缳 8335
祚 8330
▁button 8324
▁gossip 8322
nni 8321
▁baza 8315
▁zone 8313
wend 8312
as 8309
▁lover 8308
up 8307
hy 8298
▁copyright 8297
ars 8290
鬣 8281
lulu 8280
feat 8265
rie 8261
稹 8258
▁mw 8256
▁hub 8250
▁funk 8231
▁mis 8229
▁left 8220
啶 8209
nca 8208
thy 8199
▁deadline 8193
▁lab 8193
▁capital 8190
▁dark 8174
▁kill 8173
▁punk 8165
峒 8161
▁sket 8148
▁stand 8145
▁private 8142
▁sop 8126
ona 8125
蚜 8125
涔 8124
rv 8116
style 8116
覅 8107
roy 8104
station 8103
pe 8099
▁libra 8098
▁mia 8088
▁away 8086
flower 8078
▁span 8078
膻 8075
▁crystal 8074
▁gigi 8074
▁put 8073
▁mother 8064
袈 8062
ca 8061
篑 8056
菖 8052
▁birthday 8049
湫 8047
舷 8042
谶 8037
铨 8033
▁force 8028
▁robot 8020
噫 8020
bug 8010
簌 8007
▁loop 7999
▁tok 7998
栉 7995
touch 7986
銮 7985
iams 7982
瘢 7982
▁yoga 7974
谘 7971
褛 7964
▁item 7963
▁audio 7960
疥 7958
wis 7956
ac 7954
▁bus 7954
▁moment 7953
昶 7944
浃 7944
▁language 7943
illa 7942
▁repo 7942
窠 7941
▁setup 7936
▁clair 7932
load 7930
▁nothing 7929
谡 7928
ken 7927
▁movie 7925
gan 7920
▁papa 7917
pop 7903
ze 7897
▁yao 7897
曺 7897
▁near 7894
▁save 7884
▁cache 7881
code 7877
▁product 7877
rb 7867
▁event 7864
um 7860
▁nec 7852
▁single 7851
▁discover 7849
▁wood 7849
▁gun 7841
▁every 7840
嶙 7837
麂 7828
瑁 7825
妣 7821
yon 7816
▁tip 7810
▁another 7803
vod 7798
▁hall 7796
鲛 7793
ye 7784
▁wait 7783
▁given 7778
mg 7777
黒 7776
▁vue 7773
▁rob 7763
▁tes 7762
novo 7759
phil 7757
▁cast 7755
▁saber 7755
▁sai 7749
tex 7746
zol 7746
禛 7746
▁vui 7742
茌 7742
▁voice 7740
▁listen 7735
▁week 7733
▁asia 7728
▁royal 7726
▁franc 7718
ner 7714
▁south 7713
▁wol 7698
峋 7696
▁mei 7693
▁canon 7687
秭 7682
讫 7682
▁mye 7677
▁ara 7676
▁fresh 7669
▁shit 7665
nki 7652
▁framework 7650
▁much 7637
▁stru 7633
▁please 7632
▁fantasy 7629
嬗 7629
▁anti 7626
▁lemon 7609
▁process 7608
▁lor 7599
刈 7599
cks 7598
▁ultra 7596
▁vision 7595
▁garden 7591
▁kr 7591
衾 7589
▁delta 7585
▁speed 7584
▁cor 7582
bern 7577
▁trans 7577
▁tonight 7562
▁letter 7559
pin 7554
uren 7546
▁cook 7532
▁his 7529
▁brother 7527
茭 7521
▁gr 7517
▁omega 7515
霰 7510
唳 7501
矬 7497
挲 7494
偈 7492
霭 7492
kbps 7491
啲 7486
▁machine 7482
敕 7479
▁into 7474
emon 7472
▁stella 7472
嘭 7468
桁 7465
▁fed 7463
伉 7459
ington 7458
▁files 7457
▁staff 7455
▁ana 7453
▁rog 7449
▁turbo 7448
▁hotel 7435
▁ele 7428
ue 7424
gov 7416
▁wife 7415
▁kids 7411
▁soc 7411
▁survey 7410
serv 7409
ation 7404
watch 7393
怏 7393
▁dir 7392
痍 7392
倌 7385
枳 7381
▁font 7376
阄 7376
▁topic 7370
▁port 7367
wood 7366
jf 7363
▁arra 7363
龛 7361
▁history 7358
▁application 7356
ive 7355
▁kai 7355
▁collection 7353
▁sean 7339
link 7338
▁matri 7337
▁spe 7336
▁ter 7336
凇 7334
惇 7325
箜 7325
▁usa 7320
▁blank 7298
▁val 7295
zzz 7292
峯 7288
oper 7284
▁wrote 7281
zhi 7276
vo 7275
▁twice 7264
▁iris 7260
kv 7257
▁give 7252
蒡 7249
舫 7245
▁pack 7244
▁common 7239
▁tara 7239
▁hal 7238
铄 7238
tus 7236
鞣 7236
▁ym 7235
nz 7234
▁answer 7234
eg 7232
life 7232
呶 7223
岘 7222
樾 7221
▁sugar 7220
uri 7215
▁blood 7215
▁kris 7215
溏 7211
▁klein 7202
▁wild 7197
▁child 7194
堀 7193
鳜 7192
brook 7190
▁command 7190
▁side 7190
▁zen 7187
鸬 7187
▁technology 7184
▁games 7177
▁use 7175
飨 7175
▁gia 7169
than 7161
▁peace 7159
▁other 7158
蹑 7155
▁information 7147
咗 7147
▁move 7139
陉 7137
尐 7130
▁blues 7129
▁por 7123
▁place 7119
孓 7118
▁sho 7115
mber 7113
泔 7113
▁six 7110
鄄 7108
绦 7096
▁tsi 7089
簋 7089
▁setting 7086
▁task 7068
nl 7066
▁island 7061
▁being 7055
static 7054
▁option 7053
ct 7052
▁hea 7051
▁joan 7051
渑 7045
谒 7043
▁avril 7042
▁track 7033
ren 7029
▁prefix 7027
箐 7023
ixin 7021
▁coffee 7021
▁reddit 7017
睥 7013
▁wal 7011
▁yin 7006
phone 7003
▁agent 7003
▁balance 6993
▁person 6991
訾 6988
▁mel 6981
▁virtual 6979
僳 6979
煊 6979
▁edi 6978
▁xe 6968
▁bru 6967
▁computer 6963
▁meeting 6960
趵 6956
▁motor 6955
▁notes 6953
锃 6952
hai 6951
忾 6950
▁credit 6939
▁aq 6936
▁package 6933
▁hl 6932
衿 6917
愎 6910
▁kors 6901
▁unico 6900
▁dead 6889
▁att 6886
▁support 6884
癀 6884
▁soft 6882
鹚 6879
▁tomorrow 6872
config 6869
▁bay 6861
▁bom 6853
▁should 6850
▁ber 6843
▁label 6837
▁ur 6835
▁pick 6829
▁crai 6821
喙 6821
▁meta 6814
卍 6806
able 6805
▁anne 6804
▁psy 6792
▁general 6789
dora 6786
wan 6778
▁partner 6778
maker 6775
ok 6773
▁dev 6757
菟 6753
▁tea 6742
▁fri 6733
con 6727
▁anders 6727
▁scar 6725
peri 6724
溆 6722
▁nga 6718
rise 6705
▁done 6704
▁camera 6702
蒯 6702
囗 6700
尛 6700
▁acc 6699
嵬 6699
▁rand 6694
涠 6693
▁found 6690
mbi 6686
zhou 6683
▁brun 6683
mani 6681
魑 6672
臬 6670
垡 6669
▁digital 6645
▁ren 6643
辎 6640
▁sleep 6639
垵 6639
▁caro 6637
lion 6631
▁remember 6610
▁script 6610
lita 6608
彡 6607
▁strong 6601
郏 6587
疖 6586
ble 6584
▁hans 6584
▁anni 6581
it 6580
▁ia 6580
▁human 6578
▁cro 6574
▁miles 6572
▁fight 6571
骈 6571
▁ring 6568
▁ming 6566
▁tech 6561
ness 6550
▁feeling 6550
▁est 6549
▁tank 6543
aron 6542
cole 6542
▁luna 6540
▁diploma 6530
湟 6530
糸 6525
▁promise 6517
▁blu 6515
▁das 6512
耆 6510
kg 6509
view 6509
▁hann 6507
▁then 6499
gl 6498
ting 6495
醪 6490
▁cur 6486
▁zoo 6486
▁vintage 6476
葺 6475
▁scan 6467
den 6466
铊 6462
out 6461
▁kong 6461
▁grand 6458
葳 6445
俳 6444
翦 6443
mer 6441
▁R 6440
▁il 6440
▁dot 6439
崆 6436
镉 6436
▁elf 6435
▁aid 6430
▁director 6430
▁tri 6428
▁boyfriend 6426
埭 6426
▁yourself 6415
▁veri 6410
▁yellow 6409
蝮 6406
谪 6405
▁factor 6387
cher 6385
▁camp 6383
▁focus 6381
哝 6381
▁mas 6377
▁bor 6372
mor 6368
跖 6366
dos 6359
畿 6357
▁cyd 6349
▁catch 6344
蜱 6343
▁dec 6336
▁orang 6336
祗 6331
▁shir 6323
▁town 6323
▁puma 6320
▁method 6317
▁trip 6316
▁exp 6315
▁loft 6310
▁visi 6310
▁write 6292
▁menu 6290
殒 6288
▁ling 6287
瘊 6285
min 6279
phy 6275
▁engineering 6274
篌 6274
▁mille 6273
鳃 6273
擤 6272
赟 6270
髌 6265
▁duo 6264
nic 6253
▁magazine 6251
cker 6249
ko 6244
▁hj 6236
▁mes 6236
pping 6234
▁front 6226
cal 6224
噤 6213
畈 6213
瓒 6212
眦 6207
貉 6202
▁sele 6201
▁reset 6199
▁health 6198
▁sia 6196
茼 6192
橹 6191
▁hon 6179
▁jam 6179
▁casi 6173
muse 6172
僭 6171
謇 6164
jpeg 6161
ding 6160
▁mol 6156
爨 6149
▁guy 6147
▁nero 6145
荸 6143
tia 6141
▁ou 6139
▁daily 6134
▁financial 6131
颢 6128
▁desire 6125
▁national 6116
▁xa 6114
▁land 6113
谯 6109
▁dat 6107
int 6105
▁jan 6103
▁signal 6100
▁short 6098
▁travel 6093
▁kara 6092
▁coup 6090
岙 6088
▁rade 6075
ish 6074
▁tor 6071
舸 6070
▁tee 6067
掼 6064
龇 6063
▁reading 6062
fun 6061
iec 6061
set 6055
▁fy 6047
酊 6047
▁temp 6046
笤 6032
钕 6029
▁pizza 6028
虬 6025
▁tools 6019
▁cafe 6017
▁install 6017
酩 6015
▁module 6012
囹 6009
▁theory 6007
▁palm 5998
仝 5997
苎 5997
mma 5993
wing 5992
▁cash 5989
▁film 5989
▁message 5989
▁viva 5988
▁still 5987
擘 5987
▁bella 5986
黜 5983
▁eyes 5977
▁kat 5977
馃 5977
▁mil 5976
弢 5970
▁security 5967
囯 5967
鲱 5965
tr 5963
鲇 5963
馕 5962
▁reg 5959
▁silver 5955
the 5948
▁height 5947
蛏 5943
▁death 5941
teen 5940
▁yuk 5940
嗄 5929
圄 5929
钡 5928
▁fede 5925
lf 5923
▁field 5920
flex 5917
▁gro 5915
▁legend 5914
▁join 5897
▁something 5897
▁series 5893
頫 5891
▁pit 5888
濯 5887
▁holo 5885
劭 5881
▁section 5877
▁than 5875
▁him 5866
▁amb 5864
痦 5853
▁gala 5850
ahi 5848
lamp 5845
▁came 5837
▁tool 5836
诤 5833
犇 5832
len 5831
▁rest 5828
绌 5828
mac 5827
▁before 5827
▁bell 5825
▁eleven 5819
ple 5815
▁glass 5813
▁sister 5796
▁member 5790
绶 5780
▁audi 5776
▁click 5773
ctor 5770
ffer 5770
▁fer 5769
▁together 5769
card 5757
tner 5754
▁winter 5752
▁cute 5751
椹 5745
▁cri 5744
▁they 5744
▁olay 5742
▁personal 5739
埚 5739
lips 5738
▁ham 5738
▁chic 5736
▁cult 5736
▁dangerous 5730
鬃 5729
its 5728
▁were 5723
cii 5718
field 5717
▁hat 5715
▁display 5700
瀣 5698
▁roi 5696
掴 5696
▁reader 5695
▁sao 5693
闳 5692
▁brain 5691
▁direct 5687
▁inter 5687
▁hil 5682
▁extension 5680
tiger 5677
戕 5673
▁pixel 5664
▁begin 5657
沢 5656
▁education 5647
▁silence 5644
icky 5643
buck 5639
▁far 5638
one 5635
▁sport 5626
▁butter 5622
沆 5620
▁shock 5617
▁suprem 5615
锝 5615
ssie 5609
▁isa 5605
傈 5603
▁couple 5600
▁fine 5597
▁everybody 5596
▁tan 5595
wei 5590
▁daw 5590
堃 5588
▁kent 5587
lar 5580
▁slogan 5580
tory 5578
苕 5572
坩 5571
yuan 5569
▁services 5568
rar 5565
喺 5563
▁gle 5561
kki 5559
▁communication 5559
yz 5551
▁paradis 5547
▁quick 5546
▁surprise 5545
苁 5542
cr 5541
ir 5533
▁nina 5532
▁woman 5530
瓤 5525
翳 5517
挈 5516
see 5505
▁standard 5499
愠 5498
銆 5496
淦 5493
▁going 5489
硌 5488
姘 5485
遒 5482
▁victor 5479
▁someone 5476
▁ready 5470
▁bak 5469
鲳 5468
▁shuffle 5467
▁bag 5463
▁clear 5459
tel 5455
靛 5452
ith 5449
▁rank 5449
nis 5444
yd 5443
铱 5439
▁did 5433
▁pub 5433
▁alien 5429
▁nan 5427
▁professional 5421
mov 5418
▁dei 5416
▁kin 5416
锗 5411
space 5408
▁comic 5407
▁device 5404
▁artist 5402
▁titan 5402
xi 5396
▁small 5396
ful 5394
▁analysis 5393
▁ref 5384
▁arc 5383
▁energy 5383
▁myself 5380
吥 5379
虻 5377
煅 5376
▁intern 5373
ggy 5371
矽 5364
▁fra 5361
fly 5357
▁rip 5355
孳 5342
america 5335
▁piece 5332
maha 5327
▁legal 5325
▁welcome 5324
▁children 5322
tin 5319
啻 5319
lyn 5316
▁amazing 5311
▁chat 5310
graphic 5306
▁entertainment 5306
ink 5303
sha 5301
▁pat 5299
▁jobs 5297
beck 5293
▁pok 5290
▁clean 5288
rk 5286
诂 5285
ral 5284
螈 5282
▁stage 5278
痼 5274
邨 5274
▁syn 5272
ys 5271
▁vim 5270
铳 5262
cade 5260
▁mai 5260
service 5258
▁levi 5258
▁contract 5256
▁extra 5256
▁mimi 5256
▁country 5252
▁poi 5251
▁shan 5250
邗 5244
▁board 5243
捭 5241
▁poly 5230
▁words 5230
▁swing 5229
龘 5226
▁hehe 5225
▁holiday 5225
揾 5225
boll 5224
▁train 5224
▁learn 5221
▁math 5221
ics 5219
▁create 5217
▁pur 5212
傩 5210
嗮 5210
▁lot 5208
鹬 5207
▁outlet 5206
粲 5206
嘧 5204
▁stock 5203
杈 5198
▁fund 5191
lo 5190
▁default 5189
▁rate 5187
阕 5186
ppa 5184
ot 5183
▁ask 5181
佞 5181
▁shar 5174
▁apr 5173
▁sue 5173
蹇 5170
▁bao 5166
▁carti 5165
喰 5165
瘆 5164
▁christian 5162
car 5161
ship 5161
蟥 5158
猗 5157
▁nr 5156
▁tong 5153
▁major 5151
▁teen 5150
▁profile 5149
▁urban 5148
wer 5142
檄 5142
girl 5134
▁tata 5134
▁degree 5133
▁experience 5132
▁bear 5131
▁golden 5131
▁years 5126
ach 5124
▁aka 5123
郢 5119
铡 5118
all 5117
▁kl 5117
枥 5117
▁journal 5109
▁banner 5106
▁software 5105
▁fh 5102
zz 5095
zy 5093
▁mira 5087
菓 5085
hap 5084
▁cookies 5083
▁judge 5083
塬 5083
ody 5082
槎 5082
囝 5081
bar 5080
▁hou 5078
笞 5077
哋 5076
琮 5075
▁bone 5074
▁booking 5071
▁driver 5071
▁gone 5070
▁controller 5067
▁sol 5067
dre 5064
▁address 5064
▁destin 5059
moji 5057
▁round 5055
▁edition 5042
▁nov 5039
▁thing 5039
逯 5036
rum 5032
缛 5032
interes 5030
trick 5026
▁tam 5022
▁connection 5020
▁jon 5020
▁women 5018
berg 5014
▁dynamic 5013
▁cla 5011
▁release 5008
xie 5006
柞 5000
▁dun 4999
▁documents 4995
▁atom 4992
cro 4991
▁modern 4990
korea 4989
▁hud 4983
▁kyl 4983
疽 4982
jt 4977
忪 4977
lip 4974
cra 4971
▁bre 4965
祜 4958
嶂 4956
犍 4950
▁second 4948
▁mur 4947
▁father 4946
囼 4945
媾 4942
鼋 4942
▁trade 4941
鎴 4932
ro 4930
▁fin 4929
▁lang 4929
▁ant 4926
磬 4926
ture 4921
▁tattoo 4921
▁gor 4915
▁sur 4915
巿 4915
蘅 4914
▁filter 4913
▁problem 4912
tumblr 4909
讣 4909
▁gho 4905
jn 4904
▁circ 4904
▁aus 4902
俟 4900
▁insert 4899
▁trouble 4898
▁sto 4896
爰 4896
shirt 4894
▁gift 4891
锱 4889
bie 4888
▁lawr 4882
▁leave 4881
姒 4881
▁eco 4880
▁bry 4879
lash 4877
▁reference 4875
▁cid 4873
▁gen 4871
▁cuba 4870
▁freedom 4867
▁geni 4866
llustrator 4861
▁lib 4860
▁wong 4857
▁bingo 4854
▁gogo 4854
▁sama 4851
▁password 4850
鐧 4849
▁meet 4848
wikipedia 4847
阏 4844
虢 4841
▁hay 4840
kend 4834
bling 4828
gas 4828
▁apply 4826
▁speak 4813
▁bro 4811
▁nic 4811
喟 4811
▁taxi 4800
manda 4794
▁goda 4792
噙 4787
born 4781
亓 4774
vast 4767
鍦 4756
tu 4749
▁economic 4745
wen 4744
崧 4741
▁must 4735
non 4733
埙 4731
lay 4729
▁qu 4729
▁total 4725
▁question 4723
▁sign 4723
▁aug 4720
▁license 4720
chester 4719
pher 4719
氵 4719
▁would 4717
▁syd 4712
钺 4712
▁glo 4711
佶 4709
▁gj 4708
umbi 4699
oid 4688
▁import 4688
▁bond 4686
cs 4681
▁frame 4681
▁things 4681
▁fre 4674
▁resource 4668
▁haya 4665
岿 4665
▁hui 4663
▁guitar 4661
▁production 4661
▁reach 4657
ana 4652
▁pw 4651
▁less 4648
▁cake 4639
▁mom 4637
▁excuse 4636
▁nit 4636
▁gene 4623
▁speaker 4621
啉 4621
▁rec 4616
▁result 4612
▁venture 4611
圪 4611
▁feature 4608
▁spy 4608
觥 4607
tter 4604
▁weather 4602
鲠 4602
▁sms 4601
panda 4596
▁tik 4595
锟 4595
齉 4594
rg 4591
rush 4589
榫 4587
desk 4584
zone 4581
ove 4579
▁sprint 4574
lk 4567
▁record 4566
▁ellen 4565
倨 4556
骧 4555
▁angle 4550
cing 4549
▁ovi 4547
鹳 4547
▁rim 4546
▁advanced 4545
▁mah 4545
疃 4544
un 4540
牯 4540
锴 4539
▁pig 4538
癔 4535
▁met 4534
▁yun 4533
▁shot 4532
雒 4530
▁versa 4529
ura 4526
浘 4525
▁border 4524
▁living 4522
▁statement 4515
钿 4511
▁bal 4510
泮 4508
獾 4508
蝾 4508
▁ker 4501
▁shall 4496
bble 4494
▁sep 4492
▁/ 4487
public 4485
▁pla 4485
ison 4484
铖 4483
phan 4482
stal 4481
▁fantastic 4480
di 4476
wart 4475
gaga 4471
mie 4467
▁kry 4465
▁holl 4464
▁dick 4462
擢 4459
▁nest 4457
▁course 4456
▁layout 4456
▁inside 4455
骶 4453
曽 4452
頔 4450
▁exit 4448
▁without 4444
▁tut 4443
▁had 4434
玹 4434
▁sale 4431
▁teacher 4431
瑗 4430
嗪 4427
thur 4425
▁ding 4424
unk 4422
▁trick 4422
pm 4419
▁bw 4419
▁culture 4419
▁lux 4413
▁piano 4412
bl 4411
▁ons 4408
▁vel 4408
▁waiting 4407
▁engine 4405
witch 4404
锑 4403
苻 4402
▁spi 4398
▁sports 4398
▁issue 4397
▁sample 4396
廋 4395
▁eat 4394
妁 4392
▁storm 4391
▁res 4384
▁station 4381
▁tot 4380
im 4377
▁console 4377
痈 4377
腈 4377
▁april 4375
▁metro 4368
verse 4364
ule 4359
齺 4357
烔 4355
▁capta 4352
▁opt 4351
▁jie 4347
锒 4346
▁des 4341
head 4339
▁indi 4337
uf 4334
嵯 4333
▁performance 4329
诳 4328
▁era 4327
檫 4327
髯 4324
▁hai 4321
▁disk 4317
▁score 4317
咭 4317
▁chica 4316
ect 4310
▁moz 4308
rus 4307
▁door 4307
▁union 4297
▁stack 4295
gon 4294
nor 4294
over 4294
alphabet 4289
art 4288
▁disc 4287
嫚 4285
▁kay 4282
chang 4281
▁sna 4274
▁rice 4271
▁para 4269
des 4268
dding 4267
▁sco 4266
诰 4265
vet 4262
玏 4262
遽 4259
▁gy 4257
恹 4257
▁ocean 4252
▁thread 4249
睚 4249
cou 4248
ene 4246
▁document 4242
鹞 4242
▁guide 4241
▁context 4239
▁relax 4228
▁cop 4226
hat 4224
▁term 4223
ex 4222
郗 4218
▁normal 4216
鲷 4213
▁hyper 4206
燧 4205
脲 4204
▁nor 4203
纞 4199
ola 4196
伥 4189
麤 4186
▁risk 4185
圞 4181
▁fei 4178
ez 4175
▁album 4175
▁banana 4175
▁alert 4169
vard 4168
镛 4168
ango 4167
▁cel 4165
▁stem 4164
剜 4163
戆 4158
▁pure 4150
▁pace 4149
▁objective 4146
▁cream 4145
sse 4144
nda 4141
齁 4141
▁bright 4140
釆 4139
▁hour 4138
▁hook 4136
▁ata 4133
▁crush 4133
▁faith 4129
▁lim 4129
tool 4128
▁press 4127
mit 4125
▁kanye 4122
ette 4120
▁pretty 4119
▁slim 4115
濉 4115
▁pis 4113
xy 4110
su 4106
wie 4101
淙 4099
jh 4097
▁episode 4096
▁sod 4093
▁kao 4086
▁important 4084
▁schedule 4082
iza 4078
▁neil 4078
asis 4075
▁fal 4062
圜 4062
爩 4061
▁cole 4055
▁duke 4055
▁condition 4054
▁lei 4052
ology 4047
▁shake 4047
org 4046
▁arts 4046
▁paste 4044
▁meg 4043
▁timer 4040
analytic 4032
▁material 4030
▁format 4029
rz 4024
▁fool 4024
▁many 4024
▁pes 4024
▁hus 4023
畦 4023
潴 4017
▁institut 4016
▁trap 4016
▁fac 4006
▁ear 4004
▁tax 3996
▁range 3994
鸜 3994
▁training 3991
▁ego 3989
▁concert 3987
敎 3982
妪 3981
▁bless 3980
嬲 3979
灪 3978
秣 3978
ction 3975
▁kit 3974
▁okay 3972
▁kern 3968
▁messenger 3968
lotte 3963
▁does 3961
▁lia 3959
sta 3957
▁audit 3954
婳 3953
▁limited 3952
▁customer 3949
▁deal 3949
red 3946
芗 3946
▁wine 3942
▁reason 3941
▁pull 3937
▁status 3936
▁luke 3932
mount 3931
▁colli 3931
roc 3928
▁chance 3927
▁been 3925
▁gee 3925
▁gang 3923
▁images 3922
▁area 3921
嫲 3918
▁could 3917
▁virgin 3917
矸 3916
encia 3914
査 3909
▁weekend 3906
▁russe 3899
▁choice 3897
闱 3892
▁its 3891
bat 3890
铧 3887
▁output 3886
崮 3886
鞻 3877
▁matter 3876
▁luci 3875
钃 3870
lam 3869
quq 3868
昰 3867
bia 3866
▁vai 3865
嘁 3865
骠 3865
▁pep 3864
乀 3863
▁thinking 3861
▁enterprise 3854
噘 3853
visor 3847
椽 3847
尓 3844
bbi 3841
麣 3839
▁medium 3838
倬 3834
pen 3831
鹗 3829
▁wear 3827
▁senior 3826
mobi 3822
▁kick 3822
▁trust 3822
▁youth 3820
▁wedding 3819
▁same 3818
啖 3818
▁eng 3810
beta 3808
胴 3808
▁fake 3807
▁gin 3807
▁belle 3804
▁poker 3803
▁milk 3802
洺 3799
掮 3797
▁mega 3795
aspx 3792
▁born 3792
癵 3792
▁quality 3791
cci 3789
▁subject 3789
翀 3789
▁speech 3788
窨 3788
▁tre 3785
僖 3785
镗 3782
贽 3781
win 3779
▁response 3775
▁picture 3773
▁stream 3773
▁unde 3773
ore 3772
▁austral 3770
▁most 3768
螯 3762
丷 3761
▁safe 3760
▁funny 3757
▁define 3753
▁chain 3749
▁whatever 3748
tic 3746
▁feed 3745
嘬 3745
▁imp 3744
ves 3740
▁dai 3739
tha 3738
ser 3734
▁working 3734
vel 3732
▁launch 3731
▁kur 3730
▁mean 3729
粿 3729
亊 3727
▁foundation 3721
▁parker 3721
鹘 3721
▁ore 3715
tis 3713
喑 3713
▁fusion 3710
▁seren 3707
ja 3706
▁fix 3704
▁transfer 3704
塚 3704
ppy 3703
▁cara 3703
▁coming 3703
house 3702
▁comp 3701
inform 3700
beth 3699
恫 3699
▁send 3696
▁sept 3692
▁wireless 3691
殁 3691
▁mention 3690
徭 3690
gle 3689
▁creative 3688
▁length 3688
畊 3688
kira 3687
洄 3687
▁ew 3686
▁insight 3686
bel 3685
▁aero 3685
▁champion 3684
▁uni 3683
祼 3683
▁central 3681
▁everyone 3680
▁pct 3680
▁pattern 3678
▁astro 3673
逑 3673
▁ind 3672
▁workshop 3672
gib 3668
垅 3664
▁western 3663
▁berke 3661
韪 3661
▁position 3660
▁engineer 3659
▁primer 3659
nner 3655
col 3647
菘 3647
吅 3645
fang 3635
▁background 3635
槑 3635
▁stu 3631
揠 3630
颞 3629
yl 3627
▁inf 3624
▁mouse 3624
呋 3622
sen 3620
燚 3619
ground 3615
▁jude 3612
bus 3609
嗫 3608
楽 3606
▁layer 3604
ian 3603
篁 3603
▁apps 3600
▁location 3599
stic 3594
▁also 3593
bra 3592
甙 3592
▁current 3588
▁electronic 3587
▁remind 3587
▁uri 3586
imba 3585
矍 3584
kea 3582
keeper 3580
zzy 3578
bour 3577
vana 3575
men 3574
itty 3573
stern 3572
▁strategy 3572
▁effect 3571
丅 3568
igne 3562
player 3559
▁hang 3559
▁motion 3559
▁spirit 3559
▁interface 3556
稗 3553
▁rule 3552
▁works 3549
▁grub 3548
▁jeans 3546
▁theme 3546
▁fen 3545
楸 3542
▁nei 3539
泺 3538
▁community 3537
哞 3537
▁cheap 3533
▁eh 3533
▁lav 3533
back 3530
▁certificate 3530
▁lake 3530
屐 3530
▁gall 3528
▁truth 3528
▁dif 3527
▁mirror 3526
蠹 3526
▁hack 3525
▁charge 3524
▁sui 3523
隂 3523
kura 3521
page 3518
ries 3514
▁vera 3514
▁dra 3511
蓼 3510
omi 3509
▁dre 3508
嫑 3508
riel 3507
ada 3506
dies 3506
▁ek 3504
cil 3500
▁contact 3491
▁nation 3486
▁development 3485
▁skip 3484
阊 3484
▁maro 3483
▁yen 3483
▁hol 3479
rca 3478
▁luo 3478
▁gab 3475
▁lyd 3472
gil 3468
笫 3468
▁entry 3464
赉 3462
垟 3457
▁talking 3456
鱲 3455
essa 3453
▁lite 3450
狷 3450
▁retin 3448
赭 3448
▁prin 3447
瞋 3445
▁policy 3443
stein 3442
▁solar 3442
▁assistant 3441
▁shape 3440
issa 3439
ndo 3437
▁laugh 3434
▁scene 3434
▁guess 3433
▁them 3433
▁really 3432
grid 3426
▁fur 3425
▁margin 3423
▁own 3423
曱 3422
gong 3421
lick 3420
trap 3420
▁santa 3416
▁pai 3414
▁pom 3414
▁ass 3412
handler 3411
▁metalli 3411
▁tie 3411
▁ting 3403
▁building 3402
▁tro 3401
hawk 3400
蠛 3400
▁interview 3399
hia 3397
▁tun 3396
▁kati 3392
▁role 3390
▁database 3388
▁pong 3386
fan 3384
▁natal 3383
炷 3382
嚄 3381
▁desktop 3380
▁pow 3380
箬 3378
碇 3377
▁lead 3373
▁portal 3373
盥 3373
▁ako 3372
踟 3372
▁planet 3371
黢 3370
▁rod 3367
▁login 3366
hall 3365
▁based 3365
昉 3365
sport 3364
槁 3364
▁pod 3363
▁fragment 3362
▁even 3360
ils 3359
▁hair 3357
▁journey 3357
▁venu 3356
▁equi 3353
▁random 3353
age 3349
ntium 3348
ttle 3345
绀 3340
pt 3337
▁dram 3336
▁pri 3335
▁handle 3334
亻 3334
萘 3331
诓 3331
▁wonderful 3330
pic 3329
▁sno 3328
▁feb 3326
恽 3326
bian 3325
娈 3325
嚟 3324
ssa 3321
鳟 3318
鳏 3316
屙 3314
▁rey 3311
▁investment 3309
珥 3309
皴 3307
缦 3307
▁golf 3306
莳 3306
▁tar 3302
枋 3300
▁said 3298
▁property 3295
ller 3294
勖 3294
▁pal 3291
pub 3288
▁ark 3288
fin 3287
脘 3282
gger 3281
val 3281
▁intro 3279
▁screen 3279
kon 3278
▁els 3278
▁mask 3278
uel 3275
▁hacker 3272
ific 3269
hi 3267
xo 3267
▁pie 3267
gou 3265
▁operation 3264
phon 3263
lt 3260
▁songs 3259
olas 3258
llow 3257
ws 3254
薮 3247
▁mission 3246
isan 3245
▁mau 3245
▁croc 3242
▁pepper 3242
▁gramm 3241
巜 3241
▁premium 3239
▁zion 3239
篾 3239
ji 3237
▁ran 3235
▁miracle 3231
▁cyn 3230
▁middle 3230
ell 3228
尅 3228
▁cle 3227
▁grant 3227
叒 3226
髙 3226
赧 3220
vas 3216
▁limit 3216
tran 3214
▁concept 3212
椟 3208
▁beach 3199
▁kor 3199
▁keyword 3198
円 3198
ipe 3197
▁festival 3196
铩 3195
▁mass 3189
蕤 3189
炝 3187
▁dress 3184
▁wake 3184
▁agency 3181
▁macro 3181
sk 3180
▁sure 3179
▁biz 3178
wg 3176
▁department 3176
桡 3172
▁spen 3169
▁gent 3167
▁sil 3167
isa 3165
pro 3164
▁apo 3164
▁mountain 3164
颀 3162
wick 3156
cafe 3155
▁users 3155
ky 3154
勰 3154
late 3143
ern 3142
vey 3141
棂 3141
ml 3138
ium 3133
▁article 3133
▁romance 3133
gers 3131
▁pain 3131
isk 3129
▁august 3129
▁generation 3129
▁mum 3128
啐 3127
▁example 3126
▁editor 3125
▁associa 3124
www 3123
▁practice 3122
ologi 3118
▁detail 3118
孖 3117
児 3116
▁lana 3115
▁jak 3111
轫 3111
▁vice 3108
▁equal 3107
vine 3105
▁missing 3102
霈 3101
▁hurt 3099
曩 3099
▁quin 3098
▁domain 3096
昝 3094
毎 3094
▁meng 3093
玦 3090
籼 3090
▁egg 3088
讦 3088
yn 3085
峄 3083
▁career 3081
▁plu 3081
wish 3079
▁ari 3079
▁cree 3079
▁wir 3079
▁defender 3078
嫒 3077
▁half 3075
old 3074
lele 3073
▁uku 3073
right 3071
▁citizen 3071
plan 3070
▁impossible 3069
薙 3069
mbo 3066
baba 3065
▁dad 3064
▁logic 3064
筮 3064
镚 3064
▁gian 3061
舂 3060
▁crash 3059
▁honor 3058
黩 3058
voc 3057
yong 3055
nsa 3053
xas 3052
艋 3049
▁books 3045
ville 3044
▁writing 3044
▁scale 3042
cess 3041
▁kenne 3040
▁selle 3036
▁lind 3035
聃 3033
iko 3031
▁lecture 3031
▁nich 3031
▁gloria 3030
骝 3030
▁fail 3029
▁handler 3029
case 3028
▁curry 3019
▁rabbi 3019
▁costa 3018
▁pool 3017
▁qui 3017
▁fellow 3015
▁sort 3015
▁forward 3014
▁pasta 3014
榉 3014
▁blas 3013
bank 3011
▁uh 3011
▁seba 3009
horizon 3008
蓖 3008
qui 3007
▁aqua 3007
▁march 3004
甾 3004
cking 3003
▁gaming 3000
alter 2995
▁tune 2995
哂 2995
▁comment 2993
▁mart 2991
▁logistic 2989
▁repeat 2984
芫 2983
▁remote 2982
▁carte 2974
▁vod 2974
韫 2972
align 2969
ella 2969
▁elite 2969
▁natural 2969
▁such 2969
greg 2966
enne 2965
▁sala 2965
mez 2964
訫 2964
▁police 2961
bash 2960
ming 2960
▁ole 2960
dia 2958
▁accept 2953
▁farm 2953
ebe 2949
鞥 2949
bury 2947
芨 2947
lap 2946
▁asa 2945
▁mina 2945
羣 2943
sey 2942
nell 2941
nna 2939
▁rex 2937
偲 2937
碓 2937
▁bonus 2935
▁breath 2935
沤 2935
fone 2934
▁rust 2934
寳 2932
mouth 2931
垓 2930
琇 2927
▁escape 2926
▁favorite 2925
丄 2925
vv 2923
▁kun 2923
樯 2923
rian 2922
▁cheese 2922
▁med 2922
墒 2922
▁vat 2919
bai 2918
埼 2915
岬 2915
廪 2915
▁making 2913
tier 2912
▁professor 2912
▁benefit 2908
▁panel 2907
▁through 2907
屮 2907
▁developer 2905
▁pipe 2905
her 2904
峤 2904
▁ago 2903
▁beth 2903
tom 2900
▁silent 2900
rta 2896
yy 2896
孛 2896
ance 2895
弁 2892
▁records 2890
繇 2888
animation 2887
mar 2886
▁enough 2883
▁graduate 2882
ms 2881
▁court 2880
髂 2880
kee 2878
迳 2878
蹰 2877
roid 2876
▁bran 2875
▁rus 2875
汊 2873
ami 2870
mall 2870
兲 2870
椴 2870
▁clara 2868
甑 2868
绺 2868
nice 2867
吔 2867
▁fid 2864
eb 2863
▁mada 2863
▁route 2863
缶 2862
焓 2861
▁ein 2860
tek 2857
white 2854
▁dol 2854
▁highlight 2853
ant 2852
wel 2852
诒 2846
▁fact 2845
凫 2844
▁thi 2843
ung 2842
沔 2842
▁container 2841
圝 2841
▁eta 2840
io 2839
隗 2838
▁bac 2836
ens 2835
翕 2833
▁bund 2831
▁tap 2831
▁split 2830
莼 2829
逋 2829
▁options 2827
▁sta 2827
qin 2826
氐 2825
逄 2820
hua 2819
桷 2818
▁blade 2816
▁sublim 2816
▁voda 2814
▁rook 2813
▁identity 2811
ju 2808
▁burn 2808
▁storage 2808
frame 2807
▁lili 2805
▁patch 2804
▁loc 2803
▁traffic 2803
▁interest 2802
pix 2801
▁relationship 2792
tone 2791
▁direction 2791
▁walking 2791
af 2790
nga 2790
▁crew 2790
▁reality 2790
篪 2789
篙 2786
▁permit 2785
侉 2780
龖 2780
sis 2779
▁aime 2778
▁barne 2778
▁cher 2778
▁electric 2778
▁museum 2776
nut 2775
▁designer 2775
▁attack 2773
裾 2773
▁attention 2772
▁dub 2772
▁consumer 2770
kle 2769
▁jung 2768
▁somebody 2768
珪 2768
暝 2767
▁aba 2765
vor 2763
▁around 2762
▁cou 2762
▁taste 2761
蚬 2760
鄯 2760
▁campus 2758
▁owner 2757
▁parti 2757
online 2756
罅 2755
▁stuff 2754
list 2752
▁dual 2749
▁wrong 2749
悭 2748
▁passion 2747
怙 2747
媞 2746
esprit 2745
▁hei 2744
▁spec 2744
蹟 2744
▁tags 2742
▁oy 2741
▁fren 2740
▁universal 2740
曈 2740
跹 2740
▁imagine 2739
▁pump 2739
▁strange 2739
炁 2739
▁pocket 2738
▁whom 2737
▁hana 2734
▁rem 2733
chi 2731
嚅 2731
靐 2730
▁slide 2729
feld 2727
▁aux 2727
▁eight 2727
▁fare 2727
ama 2726
琚 2726
▁kaka 2725
钤 2725
轸 2723
ede 2722
sing 2720
▁forget 2720
ef 2719
ory 2719
side 2719
▁swap 2717
king 2716
rett 2716
▁carbon 2716
▁inte 2716
钚 2714
笳 2713
▁expo 2712
▁porn 2712
僮 2706
▁intent 2703
yer 2700
▁introduc 2699
蘖 2699
▁bun 2698
糨 2696
▁labs 2695
▁porter 2693
叕 2692
狲 2689
辇 2687
flow 2686
茆 2686
graph 2683
狎 2683
锨 2681
sider 2680
蕞 2680
顔 2674
anne 2673
▁bia 2673
ashi 2671
▁element 2671
ban 2669
▁folk 2668
▁sie 2668
▁flat 2667
埗 2665
跬 2665
▁asian 2664
劼 2664
▁diesel 2663
▁volume 2662
芘 2661
▁tele 2660
▁plant 2659
▁nes 2658
hit 2656
▁cent 2656
dog 2655
▁component 2655
▁society 2655
庹 2655
杲 2655
▁bike 2654
▁ej 2653
▁vine 2652
▁lop 2650
sti 2646
▁rep 2646
▁vid 2646
镝 2645
▁knowledge 2644
馔 2644
▁fad 2642
▁steel 2642
▁scor 2641
▁trend 2638
▁hybrid 2637
lack 2634
▁custom 2634
iu 2633
▁startup 2633
▁router 2631
onto 2630
▁bli 2630
▁animal 2629
aine 2627
more 2627
▁segment 2626
▁sham 2624
辻 2623
ardo 2621
▁rene 2618
▁voyage 2618
邙 2618
▁demon 2616
▁hum 2616
哌 2616
ile 2615
▁happiness 2614
▁stra 2613
▁bois 2612
▁fee 2612
▁lovely 2611
▁melon 2611
▁since 2611
嶋 2610
runner 2609
fred 2606
▁summary 2605
埕 2605
lli 2603
▁systems 2603
龃 2603
▁uno 2602
▁present 2601
▁eli 2599
▁transform 2599
ur 2598
▁exception 2598
▁fir 2598
▁invent 2598
谝 2598
ru 2597
▁trin 2597
▁dollar 2596
忸 2595
▁cruise 2594
▁oil 2594
vier 2592
▁bath 2592
庥 2591
晷 2590
▁ima 2589
蹚 2588
葑 2585
cover 2584
▁different 2584
▁swa 2583
瑷 2583
▁commerce 2582
▁yn 2582
intelligence 2580
reid 2580
钹 2578
gs 2577
▁slow 2576
梶 2572
▁multi 2569
▁poco 2568
▁actor 2567
苄 2564
vr 2563
▁wallpaper 2562
浐 2561
酆 2561
▁growth 2559
铯 2559
俶 2558
▁floor 2557
龉 2555
璘 2554
▁require 2552
怩 2552
▁hear 2551
▁replace 2551
sine 2549
晩 2549
▁civil 2547
钽 2547
tec 2545
▁musical 2545
▁success 2544
▁lip 2542
曌 2541
▁draw 2539
▁kakao 2539
▁saw 2539
ob 2537
篦 2536
ik 2535
▁suit 2535
▁mood 2534
▁tin 2532
镓 2532
▁foot 2531
▁sal 2530
冏 2530
br 2529
sic 2525
fluent 2524
▁uw 2524
scope 2523
▁soon 2523
ous 2522
▁partners 2522
▁bigger 2520
▁drum 2519
▁ble 2516
▁dio 2516
谂 2516
llo 2515
▁bam 2515
▁ich 2515
疴 2515
dle 2514
▁fiction 2513
▁abstract 2511
▁unique 2509
飝 2508
hulu 2507
▁sup 2507
瑭 2507
▁stat 2506
▁- 2505
▁clip 2504
楦 2498
▁whole 2497
▁una 2496
valent 2494
▁hours 2494
▁juice 2493
▁doubt 2492
rhythm 2491
▁produce 2489
毖 2489
鱻 2487
ist 2485
▁tough 2485
cast 2484
▁demi 2484
▁merge 2482
▁stupid 2481
▁won 2481
▁fost 2480
rey 2478
箓 2478
嗰 2477
▁pages 2476
楫 2474
▁mot 2470
暌 2470
▁both 2469
▁mono 2469
镫 2469
▁vampir 2468
▁ovo 2466
cur 2464
▁trading 2464
bone 2463
垌 2463
纥 2462
▁challenge 2459
凼 2457
liz 2456
▁flori 2456
▁flu 2455
▁loss 2455
▁hahaha 2453
珣 2451
ong 2450
pore 2450
thi 2450
▁suite 2450
▁encore 2449
wl 2448
▁yol 2444
hood 2443
▁mal 2438
▁medical 2438
郞 2434
▁each 2433
▁flight 2433
箸 2433
▁gas 2432
▁chair 2429
▁sine 2428
埸 2428
ica 2427
▁inner 2427
▁torrent 2427
▁chef 2426
▁figure 2425
▁submit 2425
▁joke 2424
飏 2423
▁tru 2422
tics 2421
▁argument 2419
loo 2417
铟 2417
▁cancer 2416
boo 2415
▁grow 2414
▁psycholog 2414
▁tem 2412
龗 2412
齾 2411
▁mint 2409
von 2408
▁template 2408
菽 2408
ush 2407
▁analys 2406
▁nell 2406
筚 2403
檎 2402
▁corte 2401
▁puls 2401
▁pea 2400
stro 2399
▁mill 2399
麷 2398
▁installer 2397
▁nih 2397
xar 2396
▁chief 2396
▁valle 2395
▁flora 2394
▁llo 2394
▁laser 2392
骢 2392
尜 2391
窣 2387
▁broad 2386
▁moc 2386
know 2384
▁fear 2384
▁late 2384
蕖 2383
▁others 2382
hatha 2381
▁blow 2381
▁month 2381
▁smo 2381
vic 2379
▁purpose 2379
猢 2379
▁donna 2378
揆 2378
▁monitor 2375
▁ser 2371
▁continue 2370
▁twenty 2369
斫 2367
阗 2367
▁nel 2366
▁cli 2365
▁nok 2365
▁parent 2364
luv 2363
▁hollywood 2363
▁penn 2363
▁cab 2361
▁cola 2361
▁publish 2361
姵 2361
▁officer 2360
嶷 2360
淸 2358
▁waka 2356
塍 2355
戗 2353
▁ami 2352
▁ultima 2351
哚 2351
搵 2351
齤 2350
▁race 2348
胍 2348
玠 2347
▁yw 2345
▁chun 2344
▁monda 2343
▁som 2342
▁character 2340
抟 2340
▁ong 2339
▁otak 2339
can 2338
ent 2338
▁church 2338
溱 2338
nas 2337
▁vet 2337
fia 2336
mine 2336
▁nam 2336
ase 2335
sons 2335
▁quart 2335
幷 2335
xun 2333
▁bada 2333
▁colour 2333
摺 2333
ury 2331
▁counter 2330
▁pun 2330
恵 2330
砦 2330
▁gat 2329
▁proposal 2329
gar 2328
▁huo 2327
趄 2326
▁charm 2324
▁horse 2324
▁rad 2324
淝 2324
xis 2323
arrow 2322
▁lena 2322
▁maz 2322
躅 2321
▁finish 2319
▁corporation 2318
bell 2317
螟 2316
▁ship 2315
▁smooth 2314
▁casa 2312
眞 2312
▁everyday 2310
妗 2310
volution 2309
茔 2307
▁kir 2306
▁lex 2306
刿 2305
汜 2305
▁margar 2304
▁indian 2303
収 2302
zo 2301
▁critical 2301
▁podcast 2300
産 2300
▁using 2299
lia 2297
▁gym 2297
▁reduce 2297
mel 2296
▁campaign 2295
▁bottom 2294
埇 2294
▁hamil 2293
垸 2293
▁emo 2291
綫 2290
▁hor 2289
▁planning 2289
▁author 2288
▁marco 2288
▁jag 2287
▁sell 2287
▁shin 2287
▁browser 2286
▁atlas 2285
▁ties 2285
趔 2285
▁syl 2284
讟 2284
tle 2283
俬 2283
锶 2282
sty 2281
▁hands 2280
▁juni 2280
▁mentor 2276
▁temple 2276
▁restaurant 2275
戡 2274
▁payment 2269
薨 2269
mist 2268
igan 2267
▁alternative 2267
▁warm 2267
彘 2267
▁knows 2266
lls 2264
▁baile 2264
▁brenda 2264
▁platform 2264
▁ris 2264
荜 2262
驫 2260
our 2259
▁adapter 2258
▁cele 2258
耨 2258
he 2256
▁early 2254
▁primary 2254
▁fel 2253
竜 2253
▁until 2252
writer 2251
▁mou 2250
▁terminal 2248
堺 2248
氡 2246
chow 2245
▁lager 2245
▁notice 2245
▁roman 2244
▁mobil 2242
hun 2241
▁description 2240
hic 2239
葶 2237
tune 2236
▁verge 2235
liver 2233
▁skill 2233
ified 2232
▁disp 2232
▁swe 2232
荇 2232
lera 2228
▁execut 2227
▁yr 2227
illusion 2226
ception 2224
▁olymp 2220
▁lai 2219
hora 2218
lega 2217
笕 2216
虪 2216
▁salsa 2215
▁third 2215
some 2214
▁tube 2214
椐 2213
菈 2213
hin 2212
▁diff 2211
riana 2210
▁sit 2208
▁techno 2208
▁cancel 2205
▁thousand 2205
▁broken 2204
▁rider 2204
椤 2204
sson 2203
▁dove 2203
驽 2202
窸 2201
ray 2200
▁dim 2199
▁solution 2199
dom 2198
glas 2197
goda 2197
▁olive 2197
鸮 2197
▁cycle 2196
璠 2193
cco 2192
▁football 2189
▁revolution 2189
雫 2189
som 2188
镒 2188
▁eden 2187
▁worth 2187
sby 2186
▁grade 2184
▁spin 2183
▁understand 2182
▁ist 2181
瑀 2179
虋 2179
▁mraz 2176
▁ride 2176
▁flam 2175
hv 2172
▁las 2172
▁raise 2170
喹 2170
ight 2165
▁gina 2165
犽 2165
▁past 2163
▁romantic 2162
kell 2161
wise 2160
▁rev 2160
峩 2160
礽 2160
▁bind 2159
菸 2159
ott 2158
bok 2157
▁consult 2157
氺 2157
貘 2157
饸 2156
▁physical 2155
▁chill 2153
▁photos 2152
get 2150
utum 2149
▁minor 2149
娭 2148
炆 2148
怿 2146
gh 2145
▁academic 2145
▁poor 2145
▁producer 2144
▁association 2143
▁hidden 2143
▁prefer 2143
▁region 2143
騳 2141
fire 2140
橼 2140
philosoph 2139
▁ik 2138
▁minute 2138
▁regi 2136
▁whose 2135
▁bid 2134
▁german 2134
▁protocol 2134
▁transaction 2134
▁toy 2133
fried 2132
卩 2132
厵 2132
魃 2129
▁cable 2128
▁offline 2128
氽 2128
▁zai 2127
▁crack 2125
▁provider 2125
鹩 2125
wag 2123
▁pilot 2123
ere 2122
▁treat 2122
猹 2122
▁remove 2120
▁slave 2120
clan 2119
zimmer 2118
▁cruz 2118
▁marti 2118
▁register 2118
▁visit 2118
鼐 2118
mid 2117
▁few 2116
ized 2114
呒 2114
蛄 2114
▁dau 2111
▁fax 2111
踯 2111
▁baba 2110
▁holland 2110
▁category 2109
▁cinema 2109
bibi 2108
▁broker 2108
▁effects 2106
▁firm 2104
▁hart 2104
▁seminar 2101
毑 2099
▁khan 2098
汆 2098
▁configuration 2096
▁ger 2096
壅 2095
mission 2094
▁average 2094
▁casino 2093
▁lima 2093
ita 2092
▁hate 2092
▁pride 2092
▁acid 2091
▁lounge 2091
粝 2091
佥 2090
ad 2089
jet 2088
魕 2087
▁pris 2086
澪 2086
▁criminal 2084
griff 2083
▁norma 2082
▁strip 2081
鬻 2081
▁pois 2079
叡 2079
▁paint 2078
▁zombie 2077
▁anything 2076
瑠 2076
▁due 2075
▁export 2075
▁league 2075
▁emotion 2074
▁used 2073
蒴 2072
▁tale 2071
妫 2071
oj 2070
▁complete 2070
▁nie 2070
▁widget 2069
▁dock 2068
▁executive 2067
▁damn 2066
▁lunar 2066
▁income 2065
▁als 2064
lean 2063
楝 2062
馐 2062
architecture 2061
▁drew 2061
夲 2061
穰 2061
▁dana 2060
▁heat 2060
韾 2060
肼 2059
resa 2057
歩 2057
镲 2055
sburg 2054
▁justice 2054
▁prototyp 2053
▁popular 2052
cord 2051
▁against 2051
蠍 2051
▁behavior 2050
洹 2050
蹼 2050
▁calendar 2048
burn 2046
bird 2045
mini 2044
▁aur 2044
▁kristen 2044
▁chip 2043
▁rac 2043
▁testing 2041
▁drink 2040
▁euro 2039
亍 2039
洧 2039
ndra 2037
笄 2036
巛 2034
▁wheel 2033
歺 2033
alo 2032
▁panas 2032
tage 2031
tation 2031
aj 2030
▁cre 2030
▁ume 2030
hem 2029
▁gain 2029
▁portfolio 2029
铍 2029
▁studies 2028
▁distance 2027
tiny 2026
▁village 2026
zona 2025
camp 2024
illian 2024
瓠 2023
萁 2023
鬰 2022
pool 2021
▁president 2020
▁programmi 2020
▁kies 2019
哓 2019
舺 2019
▁radi 2018
▁chicken 2017
gress 2015
▁bachelor 2015
▁chocolate 2015
iso 2014
▁december 2014
▁keyboard 2014
▁million 2014
▁saman 2014
amour 2013
▁hur 2013
饐 2013
▁upload 2012
镔 2012
wa 2010
▁pon 2010
▁weight 2010
豕 2010
ego 2008
iv 2008
ose 2008
▁interesting 2008
靊 2008
lett 2007
桖 2007
騱 2007
▁emer 2005
▁extreme 2005
▁peng 2005
▁strike 2004
▁amor 2003
▁twist 2002
gly 2001
▁economi 2000
▁supply 1999
泅 1997
辋 1997
nium 1996
颏 1996
▁corporate 1994
▁trace 1994
bu 1993
ric 1993
▁forum 1993
▁chung 1992
asset 1991
▁centre 1991
▁thriller 1991
仵 1990
碛 1990
籱 1989
爧 1987
豸 1987
long 1984
▁compa 1982
ai 1980
face 1979
▁sensor 1979
▁tone 1979
▁talent 1978
▁initial 1977
▁expect 1976
▁notebook 1976
gnu 1975
rne 1974
▁economy 1974
▁evening 1972
酢 1972
▁heavy 1971
扽 1971
▁plot 1969
▁sana 1969
卝 1969
▁finally 1968
▁gentleman 1967
▁refer 1967
lending 1964
▁stories 1964
▁stick 1963
blo 1962
▁girlfriend 1962
呔 1962
nil 1961
owa 1960
▁liber 1960
aria 1959
nk 1957
▁almost 1957
ixi 1955
▁ipse 1955
▁tanya 1955
▁finder 1954
▁safety 1954
▁trader 1954
顠 1952
▁airport 1951
tra 1950
▁tur 1950
▁ground 1949
▁intra 1949
▁lancer 1949
▁structure 1949
▁chart 1948
▁lean 1948
笏 1948
ya 1947
▁lesbian 1947
顟 1947
▁november 1943
▁promotion 1943
▁scholar 1942
▁signature 1941
liance 1940
▁vida 1940
棹 1940
sy 1939
醮 1938
▁qual 1937
庠 1937
ora 1934
▁wana 1933
妺 1932
okok 1930
▁dig 1930
▁ses 1930
▁serial 1929
闩 1929
▁mir 1928
▁century 1927
婼 1927
mark 1925
▁bluetooth 1925
▁flas 1925
mons 1924
▁backup 1924
ppi 1922
▁appen 1922
▁puzzle 1922
▁essential 1921
▁mandar 1921
inter 1920
皲 1920
cious 1917
▁goal 1917
▁render 1917
guan 1916
shay 1916
檩 1916
▁council 1914
▁satur 1913
▁symbol 1911
▁treasure 1911
洇 1911
▁pictures 1910
▁means 1909
▁espresso 1908
minis 1907
▁however 1907
mens 1904
▁prop 1904
▁utili 1902
posed 1901
▁brett 1899
▁scientist 1898
▁empty 1897
▁corner 1896
step 1894
▁ticket 1893
蠿 1893
▁impact 1892
▁prof 1892
rozen 1890
▁scratch 1890
栢 1890
▁berlin 1889
▁fle 1889
▁pair 1888
▁fixed 1887
▁foreign 1887
▁tren 1887
ace 1886
stance 1886
坭 1882
bey 1881
lon 1880
▁rid 1878
骺 1878
▁coverage 1877
▁medicine 1877
▁salon 1876
苫 1876
sia 1874
▁advice 1874
▁lifestyle 1873
▁liquid 1873
gad 1871
dela 1870
shire 1870
▁expedi 1870
▁clau 1869
ters 1868
▁sac 1868
蓊 1868
襦 1868
ide 1866
sign 1866
▁princip 1866
▁finger 1863
iling 1862
eau 1861
ila 1861
▁operator 1861
▁positive 1861
鸷 1860
▁fli 1859
逡 1859
蚧 1858
rs 1855
▁pitch 1855
▁pot 1855
▁values 1855
▁industry 1854
▁rent 1854
晸 1854
cycle 1853
sch 1853
▁fill 1853
▁nood 1852
▁statistic 1852
▁interaction 1849
▁ones 1849
鸰 1849
ben 1848
骓 1848
san 1847
sion 1847
▁failed 1847
▁higher 1847
▁niko 1847
▁surf 1847
ties 1846
氖 1845
uc 1844
▁arena 1843
▁fucking 1843
▁pam 1843
samba 1842
▁demand 1841
rius 1840
様 1840
▁aber 1838
▁links 1838
iano 1837
▁marin 1837
▁vu 1837
椋 1837
xon 1836
▁activa 1836
▁attitude 1836
▁rules 1835
▁laws 1834
▁alma 1831
▁paradox 1831
饙 1831
▁kira 1829
▁ion 1826
増 1825
▁enig 1824
▁secure 1824
▁hole 1823
恚 1823
▁translation 1822
▁wide 1822
bit 1821
柢 1817
胪 1817
▁innovation 1815
苌 1815
ounce 1814
▁meme 1814
yeti 1813
仡 1812
榧 1811
rish 1810
thema 1810
▁decision 1810
▁might 1810
▁coopera 1809
▁sometimes 1809
杓 1809
frog 1808
▁babe 1808
鹮 1808
▁benchmark 1807
滏 1807
猡 1807
萜 1806
▁dalla 1805
桜 1805
▁trek 1804
▁iam 1803
丼 1802
nome 1801
▁blogger 1800
▁ratio 1799
郾 1799
▁profit 1797
嗞 1796
▁alter 1795
▁either 1795
蒌 1795
蚍 1795
cut 1794
澶 1794
▁organization 1793
镬 1792
▁dur 1791
▁karma 1791
仂 1791
蛉 1791
蕻 1790
▁measure 1787
▁corp 1786
荦 1786
▁cluster 1785
▁complex 1785
▁chaos 1784
▁insurance 1784
▁models 1784
畀 1784
cha 1783
▁sans 1783
忄 1783
瀞 1783
ula 1781
▁electro 1780
▁lamp 1780
荽 1780
硖 1779
cm 1778
▁simula 1778
螭 1778
yle 1777
ability 1776
das 1776
▁respect 1776
▁pisa 1775
▁arrange 1773
▁cart 1773
▁barbar 1772
ating 1771
media 1771
▁dry 1771
丌 1771
timo 1770
▁technical 1769
pavil 1768
▁blind 1768
▁scheme 1768
▁sick 1768
quad 1767
▁salt 1767
▁sic 1767
away 1766
▁coast 1766
▁goes 1766
吽 1766
▁alle 1764
鲭 1764
friend 1763
▁knock 1762
js 1759
▁dare 1759
▁exam 1759
▁feedback 1759
鲧 1757
ons 1756
▁shoot 1756
wed 1755
▁dome 1754
lla 1753
逖 1753
▁honest 1752
▁vii 1750
ces 1749
ec 1749
▁glob 1749
▁networking 1748
▁tha 1748
ball 1746
▁til 1746
▁domino 1745
med 1744
▁coa 1744
▁period 1744
谖 1744
direct 1741
▁sang 1737
▁vero 1737
▁government 1735
恂 1735
焜 1735
▁movies 1734
铋 1734
tern 1732
▁bol 1732
tape 1731
帙 1731
▁esse 1730
▁extend 1730
槲 1730
bre 1729
bron 1728
gallery 1728
nja 1728
隰 1726
use 1725
▁classes 1725
▁difficult 1725
璩 1725
scribe 1724
▁sull 1724
ivan 1722
▁nia 1722
lic 1720
rva 1720
▁resume 1720
▁memorie 1719
lala 1718
▁bos 1718
▁ohi 1718
▁wale 1718
ssy 1717
▁klaus 1716
殳 1716
诹 1716
nett 1714
pire 1714
▁amo 1714
▁mont 1714
▁incredible 1713
▁kali 1713
▁adventure 1712
▁whether 1712
like 1710
shield 1710
▁gum 1710
▁hardcore 1710
▁brist 1709
▁says 1708
槊 1708
跩 1708
ked 1707
砻 1707
▁liv 1706
挹 1705
▁ceci 1704
▁meaning 1704
嫰 1704
邾 1704
borough 1703
sor 1701
▁drag 1699
▁repos 1699
▁trigger 1699
衽 1699
sie 1698
▁sola 1698
殍 1698
硐 1698
▁hospital 1697
▁grande 1696
褔 1696
▁possible 1694
▁students 1692
▁stark 1691
▁gross 1690
▁shoes 1689
▁sting 1689
喾 1689
▁coca 1688
▁creator 1686
▁large 1686
▁throw 1686
▁coin 1685
shop 1683
▁dem 1683
emo 1682
uck 1680
▁cure 1680
蚨 1680
▁courage 1679
base 1678
▁eterna 1678
愍 1678
胝 1678
邴 1678
▁drug 1677
▁insan 1677
▁dame 1674
▁technologies 1674
▁mio 1673
▁prep 1671
畹 1671
▁mana 1670
隈 1670
fla 1669
▁holding 1669
忝 1669
▁went 1668
焐 1668
鸫 1668
dol 1667
technic 1667
▁states 1667
蒗 1667
ese 1666
bong 1665
wert 1665
▁gran 1664
▁looking 1664
owe 1663
▁montre 1662
▁plugin 1661
濞 1661
▁sab 1660
沇 1660
ught 1659
▁division 1658
lse 1657
say 1657
▁deb 1657
▁psi 1657
箪 1657
荭 1657
▁funding 1655
亽 1655
▁cause 1654
俣 1653
▁thai 1652
▁variable 1652
bes 1651
und 1651
▁various 1651
牝 1651
▁balla 1650
绗 1650
loft 1649
▁between 1647
▁chemical 1647
eld 1646
▁wel 1646
▁persona 1645
▁anu 1644
▁octo 1644
▁gli 1642
炘 1642
▁kip 1639
疳 1637
nton 1636
▁gram 1636
苴 1635
诮 1635
▁kel 1634
郄 1634
嬿 1633
▁anime 1632
▁bravo 1632
tail 1631
隹 1631
▁ton 1630
郇 1629
rite 1628
▁univers 1628
▁dicta 1626
欤 1626
rix 1625
▁sor 1625
▁wanted 1625
氅 1625
▁rights 1624
▁sti 1624
apos 1623
▁guys 1623
▁tac 1623
tting 1622
▁seal 1621
樘 1618
▁oral 1616
ille 1614
rest 1614
love 1613
▁compose 1613
▁pga 1613
渌 1613
▁dinner 1612
▁folder 1612
▁sever 1612
hd 1611
▁comfort 1611
▁priorit 1611
pio 1609
plo 1608
▁reaction 1608
vie 1607
▁mani 1607
▁medica 1607
坼 1606
heid 1604
▁dealer 1604
andra 1603
▁pov 1603
▁mara 1602
▁tablet 1601
旼 1601
▁aile 1600
篼 1599
▁computing 1598
binder 1597
▁dal 1597
▁gel 1597
▁except 1595
▁ill 1595
▁todo 1595
▁written 1595
▁frost 1594
彀 1594
▁consultant 1593
▁having 1593
▁rosa 1590
▁trim 1590
▁perfume 1589
▁yet 1589
burg 1588
▁brief 1585
▁bring 1585
▁india 1585
▁materials 1585
婠 1585
▁struggle 1582
▁ware 1582
峇 1582
nan 1580
▁quiet 1580
厍 1580
氘 1580
ier 1579
she 1579
▁enti 1579
▁inn 1579
cliff 1576
ria 1576
wiz 1576
▁calling 1576
铌 1576
▁afraid 1575
▁opening 1572
禩 1572
fr 1571
▁banda 1571
▁dialog 1571
▁fila 1571
▁resources 1571
▁stein 1571
▁volatil 1570
uni 1569
▁stel 1569
gram 1568
▁scientific 1568
▁accent 1567
▁afternoon 1567
▁quan 1567
儍 1567
coop 1565
▁verbal 1565
high 1564
▁available 1564
▁mere 1561
▁triple 1560
▁convert 1559
▁tudo 1558
▁specific 1557
捩 1556
菰 1553
▁basketbal 1552
▁ret 1552
▁saga 1552
▁lunch 1551
▁parallel 1549
▁raj 1548
▁sight 1548
碶 1548
▁gund 1547
帏 1547
▁ascend 1546
▁these 1546
喈 1545
磴 1545
▁ise 1544
▁puppy 1544
▁kitchen 1543
凊 1543
heart 1541
nte 1541
▁und 1541
shib 1540
▁residen 1540
▁flowers 1539
▁rin 1539
鲔 1539
乩 1538
into 1537
pending 1537
▁mali 1537
▁outside 1537
▁sen 1537
唵 1537
▁optim 1536
▁reflect 1536
揸 1536
煳 1536
▁instant 1534
缁 1534
▁schema 1533
逦 1533
槭 1532
狛 1532
卐 1531
bound 1530
▁cata 1530
帑 1530
▁interactive 1529
thri 1528
▁fame 1528
bull 1527
▁soda 1527
镞 1527
▁fruit 1526
▁later 1526
▁trunk 1526
艿 1526
spire 1525
▁bomb 1525
▁guard 1525
xe 1524
啱 1524
姮 1524
剡 1523
lun 1522
▁choose 1522
▁apartment 1520
▁candidat 1519
▁gravi 1518
yi 1517
▁related 1517
▁nav 1516
scape 1515
ngkong 1514
▁gamma 1514
▁lac 1514
関 1514
landa 1513
ox 1513
pia 1513
▁recruit 1513
▁mental 1512
犭 1512
▁environment 1511
囟 1510
dt 1509
▁architect 1509
▁rational 1509
▁hundred 1508
▁maxim 1508
饧 1508
▁buffet 1507
▁dating 1507
眭 1507
聼 1507
▁expression 1506
▁slip 1505
▁wit 1504
▁abi 1503
▁meter 1503
you 1502
▁discount 1502
▁viv 1502
press 1501
▁sla 1501
▁quest 1499
峁 1498
▁moving 1497
▁susi 1497
lds 1496
try 1496
▁bread 1496
▁telephone 1496
proof 1495
▁cru 1495
腧 1495
黉 1495
shi 1494
橐 1492
蒺 1492
▁hed 1491
▁concerto 1489
▁shared 1489
lis 1488
▁disabled 1488
rice 1486
旃 1486
mont 1485
tai 1485
▁ideas 1485
pho 1484
▁instance 1484
▁excited 1481
▁male 1481
▁negative 1481
▁points 1479
烜 1478
魈 1478
▁coba 1477
▁leadership 1477
▁makes 1476
寤 1476
怛 1476
▁gras 1474
▁plug 1474
糌 1474
鳔 1474
▁nini 1473
ala 1472
▁preference 1472
缃 1472
ugh 1471
xel 1471
▁semi 1471
▁hid 1470
▁monta 1470
▁tran 1470
▁independent 1469
崀 1469
▁teaser 1468
▁grego 1467
羰 1467
bon 1466
▁fet 1466
▁panto 1466
胼 1466
▁risc 1465
浈 1465
niki 1464
▁chips 1464
visible 1463
▁iz 1463
莨 1463
▁npr 1462
▁latin 1461
▁sax 1461
庅 1461
谰 1461
▁lance 1459
▁spri 1459
▁cartoon 1458
臜 1458
tys 1457
▁novel 1456
萩 1456
餍 1456
huan 1454
▁ade 1454
▁blink 1454
▁sounds 1454
▁unlimited 1454
ffy 1452
▁collect 1452
▁kite 1452
▁ordina 1452
titude 1451
▁villa 1451
鲮 1451
▁receive 1449
▁rat 1448
薜 1448
mal 1447
▁compact 1447
奭 1447
苾 1447
war 1446
▁september 1446
▁thought 1445
谠 1445
ade 1444
pass 1444
rich 1443
▁mechanic 1443
mien 1442
tical 1442
▁phase 1442
宀 1442
▁rea 1440
fighter 1439
▁rever 1439
纡 1439
ug 1438
▁barcelo 1438
▁sou 1438
▁chap 1437
▁exist 1437
▁tutorial 1437
noc 1436
owo 1435
柰 1435
venue 1434
毐 1434
沩 1433
柊 1432
茑 1432
▁aki 1431
▁belief 1431
▁delivery 1431
▁awesome 1429
▁bach 1429
▁lives 1429
hill 1428
▁able 1428
▁behind 1428
▁sii 1428
▁boat 1426
聱 1426
岢 1425
浉 1424
▁revenue 1423
▁till 1422
馑 1422
▁hin 1421
▁spo 1421
▁liberal 1419
缟 1419
ches 1418
ical 1418
▁somewhere 1418
洌 1418
▁cita 1416
▁attribut 1415
novell 1414
▁imagination 1414
ization 1413
▁manifest 1413
妘 1413
錾 1413
hine 1412
llet 1412
▁vaga 1412
▁psycho 1410
炟 1410
玘 1410
ood 1409
sus 1409
▁comedy 1409
▁laptop 1409
▁ode 1409
▁pest 1409
nez 1408
▁greatest 1408
bal 1407
▁rather 1407
▁zap 1407
gry 1406
ved 1404
▁jolie 1404
▁beginning 1403
▁violet 1403
疍 1403
銭 1403
▁cyber 1401
熘 1401
鉄 1401
庑 1400
ince 1399
▁agree 1397
▁pres 1397
▁busy 1395
▁noi 1395
鸱 1395
▁letters 1394
吲 1394
▁famous 1393
▁pirat 1392
糁 1392
▁lag 1391
bic 1390
word 1390
ult 1389
▁alias 1389
▁remain 1389
▁maxi 1388
鋆 1388
bor 1387
ei 1387
浯 1387
port 1385
▁japanese 1385
▁mud 1385
▁their 1385
▁properties 1383
lem 1382
mate 1382
▁tas 1382
▁transport 1382
缂 1382
pik 1381
tro 1381
jah 1380
▁musta 1380
▁though 1380
▁colors 1379
▁glad 1378
黙 1378
▁soldi 1377
sex 1376
▁straight 1376
玎 1376
▁glas 1375
屾 1375
鲎 1375
sche 1374
▁ola 1373
▁idiot 1372
▁yar 1372
▁slot 1371
▁sole 1371
锜 1371
▁regret 1370
舖 1370
▁items 1369
嫱 1369
怍 1369
ggle 1368
ulo 1368
▁moi 1368
▁synchron 1368
▁tomato 1368
鸶 1368
ovski 1367
▁earn 1367
▁aya 1366
缫 1366
轳 1366
洸 1365
▁bou 1364
▁creo 1364
▁fell 1364
伭 1364
theater 1362
iva 1361
xico 1361
▁imperial 1361
▁prison 1361
肟 1361
del 1360
▁blanc 1360
蚵 1360
rac 1358
▁conference 1358
▁mong 1358
▁pala 1358
缬 1355
▁danger 1354
▁tutor 1354
jewelry 1353
pit 1352
shit 1352
ged 1351
gro 1351
▁teaching 1350
ilor 1349
▁assassin 1348
▁generator 1348
▁quiz 1347
ies 1346
▁enabled 1346
▁competition 1345
▁discuss 1345
▁loved 1343
▁marina 1343
▁loo 1342
▁saya 1342
▁adult 1341
▁nemo 1341
媪 1341
eter 1340
▁budget 1340
▁casual 1340
▁commercial 1340
▁gua 1340
▁magnet 1340
▁makeup 1340
water 1339
▁advance 1339
▁notre 1338
▁complicat 1337
cti 1336
▁skills 1336
▁tio 1336
▁sav 1335
nci 1334
▁pierre 1334
hist 1333
▁along 1333
▁ile 1333
▁those 1333
▁administration 1332
帔 1330
辔 1330
闼 1330
▁tal 1329
靑 1328
blogspot 1327
▁mile 1327
▁sergi 1327
zer 1326
嫪 1326
rut 1325
▁aggressiv 1325
▁avatar 1325
▁bolt 1325
▁terra 1325
黻 1325
▁features 1324
▁plane 1324
▁reserve 1322
俦 1322
気 1322
蚶 1322
hull 1321
▁clinic 1321
▁hoo 1321
▁above 1320
▁trail 1320
笪 1320
eth 1319
▁kansa 1319
▁selection 1319
愆 1319
▁alto 1318
▁gav 1318
▁quarter 1318
brew 1317
▁hem 1317
▁aura 1316
▁ski 1316
▁tue 1316
chant 1315
sed 1315
mart 1313
toxic 1313
尒 1313
衄 1313
home 1312
▁krist 1312
▁lui 1312
stre 1311
▁pian 1311
悳 1311
eo 1310
▁cannot 1310
▁compare 1310
▁reports 1310
闇 1310
呖 1308
illy 1306
馓 1306
edd 1305
▁affair 1305
▁gonna 1305
beat 1304
▁prayer 1304
羙 1304
▁rif 1303
眀 1303
lling 1302
楮 1302
▁cui 1301
▁pour 1301
▁pier 1300
thir 1299
▁flor 1299
▁minutes 1298
uter 1297
僾 1295
嫘 1295
绐 1295
锔 1295
fig 1294
▁beer 1294
▁qua 1294
mite 1293
▁protected 1293
▁rib 1293
郤 1293
鳐 1293
illion 1291
▁hoff 1291
缑 1290
angle 1289
blanc 1289
▁nos 1289
▁quattro 1289
▁failure 1287
▁shipping 1287
▁upp 1287
▁vien 1287
chu 1286
▁guardia 1286
谵 1286
雩 1286
▁speaking 1284
▁steps 1284
嵛 1284
抔 1284
aren 1283
▁virus 1281
鳙 1281
▁become 1280
embe 1278
talk 1278
hut 1277
▁agreement 1277
▁conversation 1277
▁itt 1277
▁approach 1276
▁civic 1276
▁comes 1276
▁dice 1276
▁neutral 1276
▁suo 1276
箧 1276
▁jer 1275
橛 1275
spice 1273
嗐 1273
▁pussy 1272
琯 1272
break 1271
猁 1271
iser 1269
gate 1268
▁finn 1267
▁januar 1267
▁lees 1267
▁website 1267
ud 1266
▁fatal 1266
▁lat 1266
▁mann 1266
疔 1266
▁applied 1265
▁emotional 1265
raw 1264
▁within 1264
齑 1264
▁sung 1263
▁difference 1262
▁hom 1262
▁orchestr 1262
▁worry 1262
兎 1262
戸 1262
▁playing 1261
铪 1261
aya 1260
tore 1260
▁ans 1260
▁summit 1260
▁tired 1260
zel 1259
▁european 1259
醌 1259
▁tui 1256
欻 1256
猊 1256
boot 1255
▁anal 1255
▁tsa 1255
▁vote 1255
縻 1255
aw 1254
屣 1254
hagen 1253
棰 1253
荑 1252
lene 1251
艄 1251
▁sponsor 1250
room 1249
▁servant 1249
▁delegat 1248
炱 1248
berri 1247
▁happen 1247
挻 1247
氚 1247
▁selected 1246
瘿 1246
kita 1245
ngkok 1245
thro 1245
▁cert 1245
shore 1244
▁sino 1244
▁winst 1244
凵 1244
啭 1244
媄 1244
猞 1244
gel 1243
▁citi 1243
▁mystery 1243
▁stir 1242
▁tron 1242
涑 1242
邶 1242
bios 1241
▁charter 1241
▁situation 1241
伲 1241
▁friendship 1240
▁nail 1240
ppel 1239
▁fiesta 1239
▁often 1239
▁opinion 1239
mble 1237
▁bottle 1237
▁effective 1237
▁uma 1237
墀 1237
dow 1236
vania 1236
▁movement 1236
▁oop 1236
▁trial 1236
▁von 1236
▁anywhere 1235
▁ott 1235
amp 1234
rail 1234
ulia 1233
lux 1232
▁battery 1232
▁nata 1232
▁industrial 1231
砟 1231
▁caption 1230
▁norm 1230
梿 1230
溘 1230
猇 1229
urus 1226
▁absolute 1225
▁committee 1224
▁merce 1223
▁spread 1222
izar 1221
rique 1221
憷 1220
戢 1220
nge 1219
▁wer 1219
醣 1219
▁fran 1218
▁marriage 1218
▁sentence 1218
爿 1218
袪 1218
awa 1215
▁automatic 1215
▁capture 1214
▁serious 1214
▁automat 1213
▁avis 1213
cream 1212
▁kokia 1212
▁organic 1211
▁pleasure 1211
▁products 1211
埵 1211
倥 1210
湜 1210
▁assets 1209
▁expert 1209
檗 1209
▁bent 1208
▁nurse 1208
▁vill 1208
▁pressure 1207
夼 1207
chor 1206
start 1206
▁getting 1206
▁leg 1206
▁formal 1205
▁labor 1205
潲 1205
ally 1204
ara 1204
rier 1204
▁instrumental 1204
▁numbers 1204
▁ska 1204
europe 1203
▁confirm 1203
patti 1201
▁novo 1201
▁vendor 1201
奁 1200
▁edin 1199
▁elements 1199
▁tender 1198
▁converter 1197
▁flux 1197
罒 1197
讬 1197
▁sier 1196
▁soundtrack 1196
榘 1196
▁instrument 1195
▁viol 1195
伈 1195
dam 1194
witz 1194
▁aap 1194
▁pursue 1194
ito 1193
▁dilemma 1192
▁madri 1192
褫 1191
fall 1190
rina 1190
▁loan 1190
▁vacation 1190
钍 1190
龢 1190
ath 1189
worth 1189
▁purchase 1189
▁quantum 1189
tori 1187
▁proc 1187
▁retail 1187
菂 1187
▁manage 1186
蒐 1186
▁formula 1185
▁puff 1185
▁tweet 1185
脔 1185
▁pause 1184
呯 1184
▁alb 1183
▁mela 1183
酽 1183
new 1181
▁mila 1181
竑 1181
zio 1180
▁sera 1180
▁hoop 1179
▁pak 1179
▁stereo 1178
▁taip 1178
rari 1177
▁distribution 1177
嫃 1176
蕈 1176
▁listening 1175
are 1174
▁theatr 1174
怹 1174
蔸 1174
▁crime 1173
▁friendly 1173
厶 1173
珰 1173
翥 1173
潆 1172
穑 1172
▁healthy 1171
▁ina 1170
▁protection 1170
罓 1169
▁alba 1167
▁cit 1167
乛 1167
箅 1167
rossi 1166
▁uy 1166
▁views 1166
▁manual 1165
▁sexual 1165
姫 1165
bin 1164
▁precio 1164
阇 1164
▁abu 1163
▁claim 1163
▁parameter 1163
滹 1163
▁reward 1162
佺 1162
▁political 1161
柝 1161
秫 1161
tta 1160
▁rena 1160
沚 1160
par 1159
▁amen 1159
▁mob 1159
▁streaming 1158
▁tempo 1158
璁 1158
eze 1157
▁mak 1157
溇 1157
▁silicone 1156
纮 1156
yla 1155
▁grov 1154
溦 1154
鈊 1154
oma 1153
▁progressive 1153
岜 1153
钅 1153
鬲 1153
▁progress 1152
▁reggae 1152
伧 1152
翃 1152
▁bitter 1151
▁evel 1151
▁ideal 1151
▁pancake 1151
▁arms 1150
▁animals 1149
▁paid 1149
垧 1149
ag 1148
thom 1148
▁fog 1147
孒 1147
wich 1146
▁advantage 1146
▁although 1146
▁broadcast 1146
▁ability 1145
▁lova 1145
▁regular 1145
teller 1144
▁masse 1144
垴 1144
蘩 1143
▁gets 1142
lah 1141
▁commission 1141
▁innocent 1141
▁valida 1141
纟 1141
雠 1141
▁grab 1140
▁poet 1140
醅 1140
髡 1140
▁comments 1139
▁spar 1139
lector 1137
鳊 1137
▁bel 1136
▁survive 1136
掾 1136
▁definition 1135
玢 1134
▁nord 1133
▁awak 1132
atlan 1131
▁asu 1131
▁ske 1131
dova 1130
▁halloween 1130
慜 1130
枧 1130
hend 1129
razzi 1129
▁fabric 1129
蟊 1129
otto 1128
tato 1128
▁eros 1128
▁growing 1128
bella 1127
▁billion 1127
▁guilty 1127
▁sett 1127
▁theo 1127
cken 1126
▁dab 1126
▁inspir 1126
ici 1125
orientation 1125
▁vale 1125
趺 1125
cor 1124
▁sene 1124
▁ital 1123
archive 1122
raith 1122
▁bowl 1121
▁esa 1121
▁resort 1121
尢 1121
缗 1121
铙 1121
阋 1120
sang 1119
▁explo 1119
▁scroll 1119
舢 1119
▁exercise 1118
▁capri 1116
▁repair 1116
yang 1114
▁mun 1114
trina 1113
▁rouge 1113
▁serve 1113
牖 1113
埝 1112
ppo 1111
▁zou 1111
ats 1110
▁kore 1110
fold 1109
▁bog 1109
▁evaluation 1109
▁fitness 1109
▁suggest 1109
▁damage 1108
跗 1108
▁algorithm 1107
▁called 1107
樋 1106
hammer 1105
▁kala 1105
▁weapon 1105
诜 1105
jour 1104
▁amount 1103
▁deposit 1103
▁gard 1103
▁poster 1103
蓍 1103
氹 1101
蛞 1101
▁osa 1100
舾 1100
骘 1100
▁daughter 1099
▁rival 1099
歃 1099
care 1098
fe 1098
▁brig 1098
▁pang 1098
▁specialist 1098
砜 1098
蝓 1098
ins 1097
▁jule 1097
▁noon 1097
▁parents 1097
徂 1097
▁divide 1096
▁marque 1095
诔 1095
pot 1094
tie 1094
▁linear 1093
団 1093
▁alarm 1092
▁female 1092
▁hita 1092
ata 1091
los 1091
傕 1091
▁ame 1090
▁rud 1090
鞫 1090
骟 1090
▁details 1089
ota 1088
▁feet 1087
▁jersey 1087
▁det 1086
▁ned 1086
puccino 1085
▁sleeping 1085
変 1085
綮 1085
lanta 1084
ntana 1084
▁allan 1084
▁carro 1084
▁malo 1084
▁volunteer 1084
沬 1084
筌 1084
钲 1082
kit 1081
▁quadro 1081
僦 1081
att 1080
▁abba 1080
镙 1080
▁construction 1079
▁plain 1079
▁rating 1079
▁anyone 1078
▁chua 1078
▁discussion 1078
▁fault 1078
▁pau 1078
▁salva 1078
丵 1078
咵 1078
媜 1078
杌 1078
▁mistake 1077
冫 1077
吿 1077
蝽 1077
▁cabeza 1076
▁swim 1076
pos 1075
▁smell 1075
▁tera 1075
plex 1074
▁domini 1074
▁lines 1074
▁sava 1074
▁typ 1074
▁wealth 1074
gene 1073
▁madde 1073
▁perhaps 1073
佾 1073
uld 1072
▁television 1072
ize 1071
real 1071
▁ranger 1071
▁cobra 1070
▁messi 1070
尙 1070
浥 1070
west 1069
▁estate 1069
▁piu 1069
褡 1069
asso 1068
wat 1068
wyn 1068
▁lift 1068
囬 1068
暐 1068
芣 1068
恏 1067
虺 1067
psi 1066
▁hap 1066
辂 1066
▁literature 1065
alaba 1064
▁ging 1064
▁noir 1064
攞 1064
▁events 1063
▁politic 1063
ges 1062
lyst 1062
papa 1062
zi 1062
▁abandon 1062
▁sensation 1062
嫄 1062
▁gale 1061
▁kon 1061
▁rei 1061
仫 1061
▁fas 1060
▁moments 1060
竦 1060
髀 1060
▁landscape 1059
▁reputation 1059
orem 1058
pico 1057
ssem 1057
扥 1057
▁adapt 1056
▁assessment 1056
▁terrible 1056
圏 1056
▁closed 1055
▁stockholm 1055
▁quota 1054
巯 1054
薷 1054
hes 1053
lular 1053
▁burger 1053
▁desperat 1053
闿 1053
luca 1052
pest 1052
▁marker 1051
▁meal 1051
▁pata 1051
bis 1048
sourcing 1048
▁bdsm 1048
▁gott 1047
▁opportunity 1047
▁showroom 1047
铼 1047
▁strength 1046
蚴 1046
bol 1045
▁across 1045
▁gender 1045
cant 1044
▁kwa 1044
▁provide 1044
喁 1044
眇 1044
▁authority 1043
刂 1042
▁rum 1041
▁visible 1040
▁zao 1040
箛 1040
翾 1040
▁exciting 1039
欹 1038
颙 1038
▁notification 1037
▁upon 1037
▁employee 1036
▁mida 1036
▁proud 1036
卮 1036
▁reply 1035
odi 1034
単 1034
▁destination 1033
圹 1033
桫 1033
pay 1032
▁dubl 1032
▁calm 1031
▁lower 1031
▁regard 1031
嗥 1031
嵴 1031
皒 1031
ovy 1030
▁loyal 1030
▁bud 1029
edit 1028
itan 1028
▁habit 1028
▁muni 1028
侓 1028
実 1028
▁fossil 1027
簟 1027
lines 1026
spot 1026
▁ambient 1026
▁vir 1026
卣 1026
world 1024
▁craft 1024
▁horo 1024
▁refresh 1024
dden 1023
ration 1023
▁iglesia 1023
▁omni 1023
曷 1023
颡 1023
阝 1022
▁accu 1021
▁ahead 1021
▁sot 1021
▁lov 1020
満 1020
穂 1020
▁outfit 1019
▁rare 1019
▁boutique 1018
▁cim 1018
▁processo 1018
▁variety 1018
▁ante 1017
▁tuo 1017
▁catalog 1016
巭 1016
rious 1015
▁procedure 1015
▁videos 1015
▁sincer 1014
傧 1014
ring 1013
▁operating 1013
▁stress 1013
砬 1013
▁flet 1012
▁sud 1012
牾 1012
dian 1011
▁seconda 1011
dne 1010
gy 1010
tice 1010
▁allow 1010
▁investor 1010
凖 1010
铑 1010
bli 1009
▁weeks 1009
螽 1009
fani 1008
▁cair 1008
▁pent 1008
豳 1008
鏊 1008
file 1007
inni 1006
▁pola 1006
▁soup 1006
scher 1004
▁gore 1004
▁rico 1004
楪 1004
emper 1003
▁aval 1003
唿 1003
涙 1003
蔵 1003
蠊 1003
琤 1002
cock 1000
karta 1000
ulla 1000
▁cards 1000
▁develop 1000
踅 1000
bul 998
▁anonym 998
▁rebel 998
镧 998
fur 997
og 997
▁basis 997
▁naviga 997
▁tic 997
钇 997
▁deliver 996
▁meteor 996
彐 996
plug 995
▁haven 995
▁sharing 995
筘 995
radio 994
▁joint 994
▁kung 994
骉 994
▁teach 993
啁 993
ika 992
title 992
▁kia 992
▁spam 992
ndro 991
▁twa 991
▁upgrade 991
▁asi 990
▁ghi 990
▁excellent 989
▁glam 989
▁invite 989
▁saf 989
杪 989
硷 989
boro 988
▁dui 988
▁tink 988
▁cave 987
▁trailer 987
祆 987
hle 986
polit 984
▁dolores 982
▁prepare 982
▁seg 982
wor 981
▁fag 981
▁invalid 981
▁totally 981
崐 981
鄣 981
depth 980
坜 980
▁chili 979
▁roma 977
氿 977
淏 977
cura 976
▁fram 976
倮 976
徼 976
谮 976
黥 976
▁grad 975
蒻 975
獬 974
▁blender 973
▁results 973
▁solutions 973
ele 972
▁dood 972
仉 972
欅 972
▁diversi 971
▁wet 971
ruth 970
▁methods 970
缷 970
褊 970
lando 969
▁cotton 969
ards 968
gra 968
pion 968
▁miser 968
▁solve 968
▁protect 967
扌 967
lasting 966
▁bain 966
▁draft 966
鲥 966
rage 965
▁sty 965
▁gus 964
禳 964
plash 963
▁bebe 963
▁orient 963
▁ranking 963
▁tall 963
痩 963
trait 962
▁appreciate 962
翮 962
▁everywhere 961
bora 960
▁required 960
mojo 959
偬 959
瀬 959
瀹 959
瞽 959
▁routine 958
畚 958
mania 957
pped 957
▁domestic 957
▁standing 957
県 957
bold 956
▁devices 956
觚 956
▁plaza 955
dor 954
green 954
▁canto 954
▁naru 954
▁rica 954
bolt 953
朊 953
road 952
▁kama 952
聍 952
▁firewall 951
▁hawa 951
▁hoc 951
ator 950
▁adjust 950
▁immortal 950
ense 949
hatta 949
▁brilliant 949
▁gou 949
▁teams 949
樗 949
腘 948
eer 946
▁eure 946
▁supra 946
嶌 946
詶 946
迨 946
鼍 946
▁rag 945
▁trio 945
▁defense 944
▁heli 944
▁indirect 944
guard 943
viv 943
▁fallen 943
▁raf 943
▁vy 943
崤 943
臵 943
蜮 943
▁powerful 942
鍀 942
build 941
▁fort 941
▁percent 941
▁tion 941
鼯 941
▁farmer 940
▁moral 940
kota 939
▁federal 939
▁mash 939
etta 938
igh 938
iler 938
▁bare 938
▁counsel 938
▁curta 938
▁merci 938
▁transition 938
▁aby 937
▁cock 937
▁observer 937
▁passage 937
嘏 936
binding 935
▁questions 935
▁ster 935
茛 935
ery 934
lighting 934
▁films 934
▁motivation 934
cilla 933
▁nuk 933
▁maca 932
彖 932
搧 932
▁creation 931
▁fai 931
▁revol 931
▁spend 931
贠 931
▁confidence 930
▁lum 930
仼 930
裢 930
frica 929
熳 929
duction 928
nar 928
zza 928
▁appro 928
▁domo 928
▁tape 928
燔 928
袆 927
▁iba 926
▁least 926
▁precis 926
苼 926
▁proto 925
mind 924
▁locale 924
▁lyrics 924
嫫 924
▁nyt 923
▁resto 923
▁viola 923
鸹 923
▁combine 922
炤 922
筲 922
riya 921
▁bul 921
▁marine 921
▁terms 921
▁witness 921
躶 921
luc 920
tions 920
▁birth 920
愔 920
昺 920
罴 920
ching 919
廾 919
▁hobby 918
▁pion 918
緈 918
缡 918
盃 917
髁 917
ini 916
▁debt 916
▁radar 916
圮 915
▁tak 914
▁configure 913
▁mach 913
▁teachers 913
洎 913
▁achieve 912
▁fry 912
▁passen 912
ciel 911
▁bandar 911
▁flip 911
▁resolution 911
▁verse 911
兕 911
蚺 911
▁anno 910
▁aver 910
▁saab 910
▁seconds 910
chick 909
▁concern 909
伝 909
冴 909
弎 909
▁actually 908
▁nude 908
▁skull 908
▁told 908
甍 908
zh 907
▁vehicle 907
ridge 906
▁dam 906
趿 906
▁desert 905
linda 903
▁breakfast 903
▁minh 903
▁rapid 903
▁spart 903
▁simply 902
▁multiple 901
aires 900
▁poem 900
▁reserved 900
俢 900
▁deserve 899
▁drift 899
▁februar 899
▁garage 899
▁rou 899
ill 898
pc 898
▁wisdom 898
侘 898
ite 897
rial 897
▁curso 897
▁married 897
▁partnership 897
▁peta 897
▁posts 897
▁scanner 897
鉨 897
char 896
tario 896
▁buenos 896
▁claus 896
▁ono 896
蓠 896
嗵 895
traction 893
▁anta 893
榀 893
ply 892
zie 892
zuki 892
▁correct 892
▁drugs 892
▁mae 892
▁ways 892
埒 892
嶝 892
rman 891
ssi 891
▁aspect 891
▁climb 891
▁currency 891
▁resist 891
黾 891
baru 890
eran 890
▁changes 890
▁hende 890
▁fidel 889
▁hung 889
埌 889
▁advertising 888
▁anniversary 888
▁brenn 888
sters 887
▁vocabula 887
cke 886
bly 885
圉 885
got 884
▁crowd 884
▁hep 884
睺 884
closure 883
not 883
ppet 883
sels 883
▁dela 883
▁sau 883
▁soo 883
fish 882
▁palo 882
摭 882
霂 882
鳇 882
telecom 881
wig 881
▁banker 880
赀 880
髭 880
ip 878
tour 878
▁integrat 878
▁stamp 878
ane 877
烝 877
elu 876
▁evidence 876
狻 876
顸 876
za 875
図 875
秾 875
nse 874
▁bedroom 874
▁photograph 874
▁weiss 874
耵 874
paid 873
▁dolce 873
沄 873
agh 872
uj 872
wens 872
▁zum 872
悫 872
燹 872
蹁 872
▁mouth 871
▁addit 870
▁recipe 870
▁wants 870
煕 870
▁nada 869
亜 869
ging 868
▁resign 868
惢 868
▁casca 867
▁intellectu 867
膂 867
bed 866
ckel 866
▁finale 866
▁hul 866
▁mole 866
▁sold 866
抺 866
讵 866
dimension 865
strom 865
▁invest 865
▁watching 865
浍 864
赍 864
adore 863
dust 863
low 863
▁loco 863
gression 862
mone 862
tsu 862
▁genetic 862
etin 861
▁eile 861
lec 860
tempor 860
▁lips 860
▁massage 860
▁pipi 860
剀 860
bil 859
▁integration 859
亖 859
襞 859
gging 858
info 858
shing 858
▁brus 858
▁drawing 858
▁husband 858
▁clinique 857
▁depend 857
▁verb 857
溷 857
nette 856
磙 856
▁hue 855
▁xil 855
讠 855
mir 854
▁gut 854
▁recording 854
▁resolve 854
偾 854
僰 854
▁sag 853
▁asked 852
▁rece 852
▁truck 852
紮 852
蒟 852
詈 852
髫 852
悒 851
liner 850
▁favourite 850
▁painting 850
杺 850
▁ebook 849
▁odd 849
媺 849
玕 849
habi 848
ider 848
insomni 848
▁blonde 848
蒨 848
rado 847
▁nap 847
odo 846
shot 846
▁bald 846
▁happens 846
▁mild 846
▁predict 846
▁satellit 846
▁conclusion 845
▁karaoke 845
▁transit 845
kers 844
roll 844
▁lever 844
▁levy 844
佴 844
瓘 844
铈 844
霊 844
tech 842
▁lid 842
▁massive 842
秕 842
ely 841
▁dhab 841
▁suffer 841
撘 841
cons 840
stock 840
▁brush 840
▁dit 840
▁lack 840
▁playlist 840
▁quite 838
buy 837
▁cena 837
▁continued 837
▁wis 837
▁taking 836
丬 836
薤 836
铷 836
鲽 836
▁authentic 835
pica 834
▁articles 834
▁dyna 834
▁impression 834
▁guarantee 833
▁teenager 833
撄 833
▁ita 832
赜 832
蠃 831
▁bara 830
巻 830
鍝 830
▁already 829
▁cargo 829
▁torre 829
▁worm 829
sik 828
▁capacity 828
▁lawyer 828
▁maki 828
▁marketplace 828
ective 827
ors 826
▁cutie 826
▁pics 826
艽 826
qiy 825
▁landing 825
ject 824
栲 824
ovan 823
▁known 823
▁thesis 823
▁zebra 823
螅 823
駡 823
school 822
sian 822
▁huge 822
▁weird 822
瀍 822
put 821
▁brod 821
▁clothes 821
▁eo 821
▁persist 821
髪 821
▁applications 820
▁depende 820
▁janeiro 820
▁maintenance 820
▁salute 820
brow 819
媸 819
炲 819
碲 819
▁arrive 818
▁critic 818
▁functional 817
▁inform 817
▁sanc 817
▁survival 817
亅 817
凃 817
岽 817
leigh 816
▁homo 816
tender 815
▁casting 815
艏 815
▁ignore 814
▁recover 814
▁relations 814
▁rough 814
▁stal 814
瘌 813
袢 813
豊 813
nde 812
▁constant 812
▁mul 812
▁quantitat 812
▁recall 812
▁recommend 812
ural 811
▁pepe 811
岈 811
籹 811
▁banga 810
呙 810
粢 810
asa 809
▁continent 809
▁individual 809
▁principal 809
▁torna 809
朶 809
缯 809
script 808
shes 808
▁arriva 807
wari 806
▁opus 806
▁wie 806
睒 806
▁8 805
▁dum 805
mbra 804
▁trainer 804
kes 803
▁appeal 803
▁practical 803
▁yard 803
冭 803
袓 803
dge 801
ets 801
lei 801
▁permanent 801
▁presto 801
嗉 801
ishi 800
pur 800
▁eto 800
▁insist 800
悝 800
cel 799
cri 799
lsa 799
tri 799
▁rai 799
鳢 799
cko 798
quid 798
▁dari 798
垆 798
攰 798
bet 797
ping 797
▁fus 797
▁retro 797
箝 797
▁celebrate 796
▁gim 796
▁himself 796
▁hotels 796
橦 796
镦 796
▁annual 795
▁mam 795
鸸 795
lle 794
ste 794
▁exhibi 794
録 794
鍙 794
llon 793
▁bab 793
▁intelligent 793
鲀 793
▁murder 792
▁plastic 792
▁securi 792
▁toilet 792
揿 792
荳 792
enberg 791
▁nego 791
滛 791
鳯 791
elsen 790
natural 790
uka 790
▁amigo 790
▁prat 790
缵 790
▁dashboard 789
▁decide 789
▁forbi 789
▁italian 789
▁pistol 789
▁spell 789
洳 789
絶 789
arius 788
llum 788
▁hostel 788
榎 788
▁merit 787
▁prosper 787
berto 786
nim 786
▁della 786
肫 786
腠 786
cello 785
▁amore 785
▁nee 785
▁raz 785
rave 784
▁mus 783
▁etern 782
▁lava 782
铗 782
robi 781
堙 781
戜 781
畋 781
▁disorder 780
▁nut 780
桕 780
钸 780
tax 779
▁generate 779
禇 779
photography 778
▁grim 778
▁sma 778
戓 778
菔 778
騒 778
gos 777
rang 777
▁clare 777
▁crisis 777
▁cul 777
▁scenario 777
冧 777
茳 777
funk 776
unt 776
▁ani 776
▁awareness 776
▁whisky 776
汔 776
錡 776
鲩 776
▁classroom 775
▁construct 775
▁revi 775
垕 775
addict 774
▁ensemble 774
▁shooting 774
▁registr 773
▁starter 773
嚜 773
pont 772
▁destroy 772
▁kuo 772
▁military 772
栊 771
陞 771
hore 770
sele 770
▁perform 770
閲 770
eller 769
heng 769
▁absolutely 768
▁wax 768
dh 767
▁received 767
unda 766
▁extern 766
颟 766
dang 765
▁boto 765
▁tuan 765
ira 764
▁noto 764
▁une 764
lement 763
▁beg 763
▁bureau 763
▁looks 763
▁oka 763
罍 763
ography 762
rad 762
▁como 762
▁maks 762
▁needs 762
▁texture 762
▁threat 762
▁understanding 762
紘 762
ude 761
▁strict 761
镏 761
aging 760
cap 760
horn 760
▁environmental 760
旄 760
蠓 760
▁mea 759
▁thermo 759
hasa 758
▁dha 758
▁gri 758
▁posted 758
▁vee 758
幛 758
緑 758
▁tennis 757
帯 757
爀 757
▁sweat 756
栌 756
▁fuel 755
▁usually 755
ild 754
▁versus 754
旒 754
跸 754
▁giga 753
▁shower 753
▁sources 753
▁webb 753
圕 753
戝 753
珽 753
螫 753
▁sauce 752
log 751
▁belo 751
▁cooking 751
▁dialogue 751
▁leading 751
▁patri 751
rab 750
sses 750
wear 750
鹋 750
print 749
▁swimming 749
衪 749
loha 748
rrr 748
▁moji 748
▁tum 748
▁calcul 747
▁equipment 747
▁organiz 747
▁khal 746
蛸 746
tte 745
豨 745
site 744
啯 744
▁heard 743
▁tales 743
酹 743
镪 743
hed 742
▁bacon 742
嗌 742
瘰 742
elia 741
▁integr 741
▁seen 741
渟 741
漷 741
▁bax 740
▁cognitive 740
▁commande 740
▁nik 740
▁venue 740
黼 740
ctic 739
▁shr 739
倓 739
垱 739
奌 739
bur 738
remo 738
▁affect 738
▁connected 738
寔 738
钋 738
aldi 737
belt 737
drag 737
▁hardware 737
▁mende 737
▁ook 737
▁pengu 737
暾 737
fram 736
pack 736
▁cultural 736
鈤 735
▁mister 734
▁stea 734
擑 734
cient 733
▁engage 733
狺 733
spe 732
▁exclusive 732
▁migration 732
▁platin 732
fare 731
gile 731
▁assist 731
▁celebrity 731
▁leopard 731
▁plenty 731
▁rit 731
▁satan 731
▁collaboration 730
▁instead 730
赑 730
鄠 730
麴 730
milia 729
▁baa 729
▁circuit 729
▁confu 729
▁contain 729
▁rede 729
拊 729
▁district 728
▁groups 728
袴 728
瞓 727
莣 727
鮀 727
▁interval 726
▁curios 724
▁hel 724
阒 724
self 723
▁enhance 723
▁kod 723
▁responsibility 723
▁treatment 723
▁trist 723
茈 723
蛲 723
chen 722
nal 722
▁jog 722
▁names 722
▁projects 722
▁screenshot 722
冚 722
鲂 721
rescu 720
▁rhy 720
▁spectrum 720
淂 720
ans 719
▁mami 719
▁rasp 719
卬 719
姽 719
led 718
lever 718
tery 718
▁artificial 718
▁fantasia 718
▁reta 718
▁successful 718
瓿 718
law 717
pers 717
▁dok 717
▁inspiration 717
▁vertical 717
汏 717
烀 717
秂 717
▁audience 716
匏 716
▁pivo 715
▁tunnel 715
驺 715
麿 715
excl 714
table 714
tain 714
tress 714
▁reviews 714
晢 714
耜 714
铥 714
▁dut 713
▁newspaper 713
▁pag 713
▁tras 713
褙 713
quo 712
▁ner 712
▁reasonable 712
肜 712
rot 711
▁inspector 711
苿 711
蔀 711
钭 710
鲣 710
ono 709
▁explain 709
朓 709
泐 709
犴 709
lope 708
▁jolla 708
咾 708
甴 708
畛 708
魟 708
city 707
▁garn 707
▁substitut 707
蛱 707
dale 706
▁carne 706
▁cousin 706
▁fiber 706
刖 706
劬 706
蚰 706
▁comfortable 704
▁tivo 704
亠 704
撃 704
氷 704
蠖 704
衞 704
鉁 704
▁giving 703
▁hyd 703
▁rang 703
亶 703
泖 703
oxy 702
vette 702
▁worldwide 702
朲 702
onio 701
tland 701
▁annab 701
▁cei 701
▁detect 701
▁outstanding 701
柽 701
schul 700
▁carrera 700
▁depression 700
犰 700
镨 700
dong 699
▁azal 699
▁veloci 699
惣 699
陬 699
玙 698
锘 698
▁ath 697
▁dag 697
▁petit 697
▁smoking 697
匚 697
戋 697
▁massa 696
▁pill 696
sphere 695
▁cupcake 695
▁experiment 695
▁leath 695
▁wann 695
顗 695
▁kino 694
▁taken 694
chie 693
dded 693
▁activities 693
▁brazil 693
▁slowly 693
欷 693
abe 692
celli 692
communica 692
gio 692
une 692
▁koa 692
fair 691
▁koo 691
▁relative 691
乸 691
▁falls 690
string 689
▁housing 689
▁spoke 689
▁stre 689
dan 688
lands 688
lsen 688
ppe 688
ssing 688
嗻 688
ige 687
oh 687
▁latte 686
喎 686
籴 686
ife 685
▁below 685
itas 684
off 684
▁encounter 684
▁muscle 684
▁printer 684
▁viking 684
磔 684
▁holder 683
▁moli 683
▁volk 683
刭 683
骖 683
haft 682
wagen 682
▁conflict 682
枱 682
覚 682
▁smil 681
鱇 681
▁collective 680
▁hipp 679
殂 679
疬 679
觋 679
▁antivirus 678
▁cama 678
▁warrant 678
▁mutual 677
quest 676
rane 676
▁lave 676
rig 675
▁actions 675
▁porta 675
轾 675
olla 674
▁reporter 674
鮟 674
hold 673
lberg 673
zip 673
▁dollars 673
▁registration 673
▁sri 673
勍 673
晙 673
cki 672
stige 672
▁estima 672
▁kayak 672
歘 672
禚 672
▁mafi 671
▁puc 671
▁pul 671
▁relation 671
▁sent 671
▁suis 671
▁volt 671
rico 670
亇 670
侔 670
盍 670
莩 670
鬯 670
under 669
▁bikini 669
▁manner 669
ale 668
sas 668
桴 668
镱 668
elis 667
identifi 667
tourism 667
▁capsule 667
▁distinct 667
▁inspect 667
▁leaders 667
▁pieces 667
硏 667
▁patient 666
▁slo 666
▁tension 666
珴 666
arkan 665
spur 665
▁dro 665
▁rig 665
▁supplier 665
暁 665
譞 665
give 664
▁stroke 664
绂 664
笊 663
nio 662
▁heel 662
ial 661
rende 661
▁fam 661
▁forecast 661
▁permission 661
hida 660
warm 660
栝 660
and 659
iah 659
sert 659
▁evangeli 659
侽 659
婐 659
潵 659
疠 659
龠 659
zan 658
▁becoming 658
▁wanda 658
儇 658
奀 658
媵 658
廛 658
耧 658
舨 658
ou 657
丆 657
佧 657
渃 657
▁drap 656
lino 655
where 655
▁chronic 655
瑢 655
therapy 654
▁accident 654
▁lug 654
▁selling 654
呑 654
靺 654
maid 653
tany 653
▁knew 653
▁mig 653
筼 653
▁bros 652
▁fundamental 652
▁oriental 652
▁quanti 652
▁takes 652
铒 652
attachment 651
melt 651
▁combat 651
榖 651
歀 651
骀 651
▁bras 650
▁femme 650
▁outdoor 650
笥 650
脇 650
荛 650
fax 649
hahaha 649
size 649
▁religion 649
旰 649
酃 649
鏄 649
▁reven 648
棻 648
籀 648
螣 648
ett 647
▁nylon 647
▁parts 647
▁patent 647
忓 647
elve 646
▁confirmation 646
▁joc 646
▁nato 646
▁santo 646
▁skr 646
梃 646
▁despe 645
▁issues 645
▁potential 645
▁recognition 645
gu 644
▁cities 644
▁convention 644
▁vas 644
隳 644
vies 643
▁anymore 643
▁numeri 643
▁representa 643
冨 643
璺 643
sky 642
stin 642
zam 642
▁costume 642
▁divin 642
▁stig 642
攮 642
蠲 642
▁bis 641
▁maximum 641
▁seem 641
錵 641
ghan 640
gradu 640
▁accord 640
▁eating 640
▁finding 640
▁hypothe 640
▁mush 640
愦 640
runk 639
▁institution 639
▁loca 639
▁manu 638
廻 638
栞 638
禤 638
辶 638
ivit 637
▁driving 637
▁flavor 637
▁lap 637
▁patience 637
忉 637
晳 637
皛 637
nato 636
▁monte 636
▁perspective 636
▁piper 636
皬 636
instruction 635
nam 635
▁horror 635
崾 634
玡 634
▁population 633
▁usage 633
lust 632
▁linn 632
▁tester 632
▁wilde 632
宬 632
菪 632
nza 631
▁fabulous 631
▁malaysia 631
▁ras 631
▁synth 631
諨 631
tas 630
▁commitment 630
▁started 630
▁surge 630
圧 630
経 630
庝 629
蛴 629
谳 629
spel 628
▁oxygen 628
▁quen 628
镠 628
ection 627
hero 627
▁employment 627
▁tau 627
▁alfa 626
▁blend 626
▁minne 626
唦 626
蝥 626
ister 625
▁especially 625
▁semester 625
卺 625
▁ravi 624
▁ruin 624
▁tourist 624
堍 624
慊 624
fus 623
▁homes 623
▁metropol 623
▁minimum 623
▁sandwich 623
滆 623
berger 622
▁built 622
▁elegant 622
粄 622
鞨 622
ques 621
sap 621
▁ese 621
fina 620
power 620
uff 620
▁corps 620
▁curs 620
▁fue 620
▁grind 620
▁haute 620
▁presence 620
鲞 620
鹣 620
▁vitamin 619
茚 619
stina 618
▁among 618
▁engagement 618
▁plz 618
▁sensitive 618
▁uniform 618
tica 617
usten 617
▁ard 617
▁glamour 617
▁interested 617
▁phrase 617
▁variation 617
昳 617
▁virtu 616
屃 616
iiii 615
▁allo 615
儁 615
槻 615
禊 615
醯 615
if 614
reck 614
▁analog 614
▁anima 614
▁reception 614
▁rota 614
▁thy 614
哕 614
狳 614
▁buddh 613
▁compliance 613
弇 613
陔 613
junk 612
▁beau 612
▁neat 612
仳 612
夤 612
帀 612
椪 612
▁chose 611
▁generic 611
悛 611
獴 611
疋 611
葸 611
trip 610
▁alcohol 610
▁companion 610
▁coordina 610
▁deux 610
亾 610
湲 610
褰 610
vest 609
▁places 609
皞 609
italia 608
stub 608
▁stable 608
蓣 608
abel 607
sel 607
▁algo 607
▁mater 607
▁neighborhood 607
韡 607
飧 607
▁sain 606
▁stats 606
▁arbor 605
▁smartphone 605
搋 605
晧 605
hole 604
▁aware 604
▁deutsche 604
堞 604
毘 604
遄 604
鵰 604
cula 603
mu 603
test 603
▁changed 603
▁communi 603
耪 603
walk 602
▁grave 602
▁sak 602
纛 602
hack 601
▁bali 601
▁ell 601
▁exact 601
▁interrupt 601
▁nur 601
▁tash 601
wit 600
▁emergency 600
▁restaurants 600
suka 599
tional 599
▁karin 599
▁kram 599
▁possession 599
嵖 599
槙 599
钆 599
葙 598
tab 597
▁epi 597
▁thre 597
哖 597
屺 597
絔 597
ched 596
▁stretch 596
丏 596
俜 596
沨 596
珧 596
粜 596
翚 596
ord 595
▁checking 595
▁cose 595
▁programmer 595
▁strategic 595
▁temporar 595
▁teren 595
桄 595
▁bala 594
▁debate 594
▁hier 594
▁initiative 594
▁rot 594
▁tight 594
▁yah 594
礡 594
▁orbit 593
▁pup 593
狨 593
翛 593
蝲 593
酡 593
install 592
rings 592
▁improve 592
▁longer 592
偑 592
ments 591
▁featuring 591
▁kana 591
▁pardon 591
毳 591
泚 591
iston 590
▁sien 590
澔 590
蘧 590
leg 589
▁coral 589
▁documentar 589
▁sofa 589
璈 589
瘕 589
诎 589
ism 588
▁sector 588
▁styl 588
荬 588
eng 587
ick 587
▁arab 587
▁commodi 587
▁pole 587
▁rela 587
▁vietnam 587
髎 587
▁genom 586
▁manufacture 586
▁pile 586
圬 586
塱 586
渉 586
riam 585
▁hii 585
▁infla 585
诼 585
mash 584
▁kami 584
忔 584
dent 583
vok 583
▁bate 583
▁kelle 583
幵 583
淠 583
滗 583
觜 583
鍒 583
黧 583
gee 582
stit 582
▁appointment 582
▁navigation 582
辚 582
ritz 581
tique 581
▁crawl 581
▁valid 581
fre 580
quin 580
▁saying 580
▁sessions 580
镢 580
霪 580
▁pharmacy 579
癍 579
charge 578
cup 578
▁cosmetic 578
▁forza 578
▁variant 578
nah 577
▁influence 577
樫 577
髈 577
sten 576
▁autism 576
lom 575
▁baka 575
▁industrie 575
▁invitation 575
▁mora 575
ated 574
ires 574
▁lit 574
堌 574
嶶 574
昃 574
▁seeing 573
▁arrangement 572
咥 572
▁fil 571
▁province 571
▁worst 571
偸 571
湴 571
珵 571
鲋 571
acquisition 570
▁hoi 570
▁manufacturing 570
▁pey 570
▁seriously 570
▁shaq 570
岺 570
栟 570
gitt 569
lma 569
qu 569
spiegel 569
▁increase 569
▁scandal 569
▁stap 569
滠 569
跏 569
鍑 569
黐 569
▁disease 568
▁effort 568
▁favor 568
▁plo 568
鹾 568
eign 567
▁during 567
▁pale 567
溲 567
龑 567
eye 566
tribute 566
ute 566
▁koma 566
▁types 566
犼 566
鍏 566
▁barber 565
▁latest 565
▁minimal 565
▁screw 565
苘 565
gens 564
▁efficiency 564
▁roa 564
祘 564
ever 563
▁continu 563
▁dinosaur 563
▁overall 563
▁xer 563
堉 563
mn 562
▁appeared 562
▁courses 562
▁hazard 562
▁nguy 562
▁wah 562
烎 562
貊 562
鐖 562
鹡 562
lent 561
same 561
▁troll 561
蜣 561
▁gela 560
絜 560
qua 559
ram 559
▁byt 559
▁napa 559
蹓 559
ffe 558
quer 558
uji 558
▁complain 558
▁infrastructure 558
▁particular 558
澌 558
祤 558
hale 557
mela 557
▁afro 557
▁bora 557
▁drill 557
▁further 557
▁nuclear 557
▁happened 556
▁jep 556
▁probably 556
▁vang 556
笸 556
▁apart 555
▁champ 555
▁franco 555
▁jury 555
▁promote 555
▁taught 555
冮 555
埘 555
daily 554
olo 554
▁mayo 554
▁monthly 554
▁nima 554
▁noe 554
奬 554
枂 554
眬 554
蜩 554
觯 554
gner 553
ining 553
▁conserva 553
掟 553
菻 553
mmel 552
刳 552
汚 552
荩 552
辏 552
clu 551
cristian 551
ert 551
rida 551
sca 551
▁cau 551
▁nin 551
▁pronuncia 551
殛 551
ario 550
▁tit 550
浞 550
▁sedan 549
洣 549
鹛 549
pie 548
rosi 548
▁exposure 548
梼 548
覌 548
lander 547
▁following 547
▁powder 547
乁 547
尥 547
ony 546
▁logge 546
戯 546
elda 545
ev 545
▁celebration 545
▁elementar 545
▁likely 545
偁 545
搴 545
hez 544
uar 544
▁juda 544
▁judi 544
琎 544
andre 543
pac 543
▁geral 543
▁rup 543
寛 543
苊 543
邠 543
▁actress 542
▁bata 542
▁contribution 542
▁declare 542
▁toll 542
莮 542
py 541
▁bron 541
▁milli 541
▁mosaic 541
▁previous 541
▁prompt 541
▁shaka 541
孥 541
漈 541
缌 541
锇 541
鼩 541
data 540
▁climate 540
▁lok 540
▁pred 540
▁ull 540
劏 540
猱 540
蓅 540
谇 540
鈡 540
cie 539
mare 539
vention 539
▁impress 539
尨 539
屛 539
捜 539
燿 539
缣 539
umbu 538
▁cant 538
▁gradu 538
▁sushi 538
奓 538
钐 538
▁capitol 537
▁colon 537
▁minister 537
leb 536
▁ibi 536
▁refuse 536
▁rude 536
楯 536
▁obi 535
搫 535
粧 535
鍢 535
dro 534
pala 534
▁duran 534
▁regional 534
烺 534
髑 534
sett 533
▁lime 533
▁reme 533
▁suicide 533
筜 533
▁dung 532
▁genre 532
▁luxe 532
鸲 532
cano 531
version 531
▁basket 531
▁humb 531
▁introduce 531
▁members 531
▁starting 531
倻 531
▁leis 530
▁organ 530
▁updated 530
仮 530
▁corn 529
▁flood 529
▁kra 529
▁lod 529
▁parcel 529
▁termina 529
冂 529
咹 529
棨 529
眛 529
鎯 529
round 528
▁attend 528
▁certain 528
▁expected 528
▁spiritual 528
茻 528
鬘 528
ignon 527
▁cun 527
▁requirements 527
god 526
▁antoi 526
▁bestseller 526
▁designed 526
▁discipline 526
▁mortgage 526
鹇 526
▁indeed 525
▁malik 525
▁paradigm 525
▁portable 525
▁sem 525
蛩 525
鎶 525
镡 525
▁amade 524
▁passiv 524
姩 524
曛 524
▁aca 523
▁berg 523
▁compatible 523
▁suddenly 523
gun 522
▁este 522
▁triumph 522
芔 522
蕰 522
鱀 522
ater 521
嚰 521
禟 521
钪 521
鹍 521
abbat 520
byte 520
mis 520
▁digit 520
▁gorgeous 520
▁lik 520
▁optimiza 520
钌 520
▁gig 519
▁privacy 519
柃 519
浼 519
熜 519
邽 519
鳉 519
ddin 518
▁added 518
▁expose 518
▁sgt 518
怃 518
淯 518
箨 518
虓 518
rica 517
uma 517
▁benedic 517
▁parking 517
冖 517
绱 517
place 516
▁alam 516
▁dsb 516
▁holde 516
aks 515
lete 515
▁knowing 515
屽 515
憍 515
楉 515
苤 515
anu 514
gende 514
lich 514
racha 514
▁schools 514
▁substance 514
呴 514
嘫 514
襙 514
覀 514
hout 513
▁hale 513
▁veterinar 513
崚 513
懆 512
狯 512
髹 512
pies 511
▁finished 511
▁intention 511
▁kita 511
▁plate 511
▁rond 511
▁necessary 510
▁publication 510
▁traditional 510
埤 510
钫 510
gna 509
▁keren 509
▁scen 509
缒 509
sub 508
▁nutrition 508
▁supermarket 508
栳 508
ometr 507
▁appar 507
▁besi 507
▁ish 507
▁offering 507
枨 507
▁firmware 506
▁kam 506
▁kinder 506
▁logi 506
▁nen 506
▁provo 506
崟 506
砵 506
笉 506
african 505
ways 505
▁melodi 505
▁spare 505
帻 505
瓙 505
▁cocktail 504
澥 504
玍 504
硗 504
罾 504
镆 504
鲆 504
鵺 504
▁bau 503
▁updates 503
嗗 503
罟 503
ained 502
beli 502
etes 502
ffin 502
▁basta 502
▁negro 502
▁stair 502
戥 502
斎 502
甏 502
蕥 502
biga 501
ime 501
▁consider 501
▁forgotten 501
▁grip 501
▁pige 501
▁sentimental 501
癯 501
蕅 501
▁infer 500
▁mature 500
▁players 500
堽 500
plication 499
tak 499
▁dali 499
▁deja 499
▁educational 499
▁problems 499
▁realize 499
恓 499
桤 499
gino 498
▁julio 498
▁soleil 498
▁took 498
鹪 498
rell 497
▁leaving 497
剣 497
廨 497
anna 496
mund 496
▁arre 496
▁eso 496
▁glitter 496
▁montage 496
搦 496
鏉 496
吢 495
垜 495
pai 494
▁wad 494
綘 494
mobile 493
▁agricultura 493
▁elastic 493
▁koto 493
▁voix 493
窳 493
▁consum 492
▁monet 492
▁pike 492
俵 492
棼 492
韽 492
metric 491
▁lud 491
玗 491
iz 490
▁hihi 490
▁refund 490
栱 490
illon 489
ologue 489
yin 489
▁spie 489
丗 489
绁 489
胨 489
郛 489
osta 488
uhan 488
▁conversion 488
▁expand 488
▁fragil 488
▁koi 488
▁succeed 488
▁syndrome 488
埴 488
馿 488
ido 487
▁stud 487
琲 487
簕 487
绠 487
▁changing 486
▁sacrifice 486
▁secretar 486
伄 486
峣 486
癿 486
▁created 485
▁examina 485
▁roof 485
▁technique 485
柁 485
漶 485
鄜 485
▁civiliza 484
▁rie 484
▁senti 484
伛 484
効 484
礻 484
裥 484
黁 484
mus 483
rez 483
▁barrier 483
▁concrete 483
▁kool 483
▁meu 483
▁ministr 483
▁multimedia 483
▁redo 483
渼 483
▁benefits 482
▁dair 482
▁exactly 482
▁millenni 482
▁yeh 482
觇 482
stra 481
▁archiv 481
▁levels 481
▁flexible 480
▁marathon 480
▁molecular 480
▁regula 480
▁transmission 480
kan 479
▁morto 479
値 479
薆 479
▁modal 478
▁tira 478
呿 478
苩 478
荌 478
谞 478
鎷 478
fice 477
scar 477
▁lobby 477
箦 477
苈 477
鏂 477
▁allowed 476
▁argentina 476
▁canal 476
▁deci 476
▁dessert 476
▁experimental 476
▁trop 476
嵗 476
铽 476
▁agenda 475
▁tapa 475
▁vous 475
慝 475
敉 475
燠 475
borg 474
mming 474
▁accepte 474
骕 474
鶸 474
鼙 474
▁mee 473
翙 473
酔 473
facebook 472
hini 472
ymo 472
▁baro 472
▁confession 472
▁gir 472
▁kona 472
▁tradition 472
ggi 471
oon 471
▁evaluat 471
▁membership 471
▁offshore 471
▁older 471
▁reasons 471
澐 471
蒣 471
excellence 470
motiv 470
▁collage 470
▁composition 470
▁lucid 470
垯 470
祓 470
dio 469
fiz 469
▁alpin 469
▁plasma 469
圯 469
槸 469
浄 469
rack 468
▁cum 468
▁debut 468
▁distribu 468
▁killed 468
▁suspend 468
▁transparent 468
晡 468
莛 468
蜞 468
袛 468
dhi 467
▁muller 467
蚋 467
nom 466
▁appear 466
▁felt 466
▁interior 466
▁tort 466
噉 466
溽 466
鲡 466
cate 465
tino 465
▁efficient 465
▁guru 465
▁humor 465
tten 464
▁nep 464
▁quickly 464
▁samu 464
洑 464
蔹 464
az 463
reje 463
ub 463
▁admir 463
▁hade 463
▁lien 463
▁rally 463
▁sade 463
聴 463
cyclo 462
dder 462
phal 462
▁elk 462
▁replica 462
煋 462
rai 461
▁cases 461
▁fluid 461
▁hindi 461
枼 461
跣 461
▁abort 460
▁messages 460
瘼 460
antic 459
app 459
gom 459
hari 459
psy 459
▁prima 459
▁turning 459
愽 459
滉 459
牂 459
▁lots 458
▁penis 458
侞 458
偓 458
濄 458
蓐 458
jin 457
▁bleu 457
▁competitive 457
▁lub 457
▁revision 457
塅 457
夬 457
槠 457
chino 456
deutschland 456
▁carefully 456
▁declara 456
▁merr 456
▁pasa 456
▁prove 456
呭 456
墖 456
荿 456
镄 456
鲼 456
gga 455
▁interpretation 455
▁luce 455
▁workers 455
煇 455
dice 454
isolation 454
ramos 454
singh 454
tyl 454
▁auditor 454
▁corona 454
▁tad 454
澂 454
瑱 454
筇 454
縂 454
kla 453
lico 453
▁approved 453
▁hir 453
▁imagin 453
▁offen 453
▁seeking 453
▁jus 452
倶 452
枘 452
lot 451
▁acquire 451
▁describe 451
▁modifi 451
▁qualified 451
摽 451
湓 451
铞 451
鹎 451
▁admit 450
▁diagnostic 450
▁disa 450
▁mang 450
▁medal 450
▁separate 450
屦 450
畠 450
礤 450
総 450
阍 450
fix 449
▁arsenal 449
▁criteri 449
▁slap 449
渕 449
渖 449
謦 449
骃 449
phe 448
▁contest 448
▁exploit 448
▁plat 448
愬 448
慬 448
栆 448
脒 448
鐜 448
ail 447
ions 447
legging 447
tree 447
zier 447
▁entra 447
堜 447
昐 447
逹 447
▁addiction 445
▁nom 445
呣 445
殢 445
蕹 445
贇 445
阃 445
ab 444
his 444
mba 444
rope 444
▁customiz 444
▁gaz 444
▁wag 444
嗙 444
蕗 444
鹀 444
cite 443
gara 443
kie 443
mic 443
▁barra 443
▁luka 443
▁mans 443
▁monetar 443
▁protein 443
厷 443
▁clima 442
▁colle 442
▁diagram 442
▁dramatic 442
▁fem 442
莔 442
illes 441
▁anxiety 441
▁carb 441
▁recent 441
▁suppose 441
▁volta 441
堠 441
祧 441
稲 441
mere 440
str 440
tang 440
▁blot 440
▁graves 440
▁relief 440
挊 440
撙 440
迓 440
assurance 439
bris 439
gin 439
holt 439
iner 439
▁impressive 439
▁instinct 439
▁meditation 439
鹟 439
cred 438
ska 438
sleep 438
toe 438
vous 438
▁classifica 438
▁hivi 438
▁manga 438
▁soy 438
嚭 438
庋 438
莯 438
▁hic 437
▁kale 437
▁quali 437
▁sny 437
潶 437
稂 437
褀 437
詪 437
饫 437
nesc 436
scription 436
▁minori 436
▁reveal 436
▁sitting 436
▁stylist 436
処 436
唲 436
綝 436
藠 436
鍗 436
ffel 435
▁gave 435
▁yon 435
狃 435
bility 434
nings 434
num 434
through 434
▁discrimina 434
▁probabil 434
吇 434
唎 434
楢 434
虒 434
蚡 434
颎 434
chop 433
music 433
▁establish 433
▁moved 433
涴 433
魆 433
tely 432
▁cir 432
tler 431
trem 431
▁abuse 431
▁comme 431
▁sender 431
▁truly 431
紒 431
胩 431
pil 430
▁forte 430
▁kush 430
▁stuck 430
夨 430
涢 430
菉 430
蹀 430
din 429
▁bought 429
▁onda 429
紬 429
鮰 429
dependence 428
oise 428
rain 428
winning 428
▁amit 428
▁bbw 428
▁sein 428
chas 427
vu 427
▁breed 427
▁tres 427
狴 427
瘗 427
瞾 427
鬈 427
bir 426
ifa 426
▁actual 426
▁lago 426
▁machines 426
▁transformation 426
攵 426
旆 426
橥 426
lez 425
liza 425
▁implementation 425
▁koh 425
▁tuli 425
熺 425
裎 425
麈 425
▁dependent 424
▁determine 424
▁promo 424
惂 424
汭 424
湔 424
眚 424
磾 424
郐 424
skat 423
suit 423
ten 423
▁additional 423
▁continuo 423
▁laborator 423
▁tests 423
囷 423
愀 423
cada 422
hand 422
zzi 422
▁rumor 422
徴 422
莂 422
鲐 422
鲻 422
bri 421
fli 421
▁complet 421
▁furt 421
▁halal 421
▁hein 421
趼 421
郷 421
nasta 420
plin 420
▁bale 420
▁frit 420
▁memoria 420
▁mesa 420
▁stylu 420
▁withdraw 420
笮 420
芟 420
laka 419
read 419
▁indicator 419
嗱 419
宄 419
惗 419
矻 419
砳 419
錤 419
hel 418
oto 418
▁contra 418
▁rab 418
▁sut 418
▁worried 418
剞 418
驲 418
anca 417
ped 417
▁baseball 417
▁cont 417
▁programs 417
嚛 417
觍 417
ili 416
pel 416
zu 416
▁cruel 416
▁disagree 416
dal 415
mot 415
zar 415
▁cari 415
▁narra 415
▁qo 415
仸 415
攴 415
逺 415
fh 414
iselle 414
▁coma 414
▁curious 414
▁erg 414
▁mambo 414
▁managed 414
悪 414
栻 414
羴 414
cka 413
help 413
▁bathroom 413
▁curriculum 413
▁psych 413
▁sticker 413
▁unless 413
吚 413
咴 413
绨 413
舋 413
rade 412
▁nhi 412
▁tek 412
▁uga 412
▁whenever 412
墘 412
▁archi 411
▁doggy 411
洐 411
ctus 410
lation 410
sive 410
▁gadget 410
▁ged 410
▁humanit 410
▁reli 410
▁skid 410
▁yung 410
胬 410
article 409
ough 409
sense 409
▁qualification 409
▁strategie 409
▁telling 409
螬 409
鲉 409
▁bags 408
▁confident 408
▁flashback 408
▁skelet 408
檠 408
玓 408
bbe 407
▁arti 407
▁formation 407
▁registered 407
▁suggestion 407
崁 407
璿 407
蔟 407
虿 407
ezi 406
▁gradi 406
▁territor 406
ded 405
piro 405
▁clothing 405
▁kal 405
▁manuel 405
▁pha 405
厓 405
塄 405
掊 405
皤 405
铕 405
rach 404
▁legenda 404
▁offers 404
▁oog 404
▁surprised 404
搠 404
舎 404
vers 403
▁bambino 403
▁chia 403
▁dua 403
▁hydro 403
▁kello 403
乚 403
夊 403
拶 403
牁 403
钶 403
▁conveni 402
▁published 402
刋 402
臌 402
釭 402
veri 401
▁grill 401
▁rode 401
呺 401
巉 401
vd 400
▁fol 400
▁operate 400
▁prior 400
姌 400
畤 400
菿 400
dl 399
▁advertise 399
▁burg 399
▁petrol 399
▁prius 399
▁vapor 399
惪 399
扃 399
happy 398
tolerance 398
▁certification 398
▁champagne 398
▁corso 398
▁fees 398
▁itself 398
▁prom 398
▁simpli 398
拏 398
搛 398
泩 398
漄 398
瓞 398
芑 398
aire 397
een 397
lott 397
▁calcula 397
▁disturb 397
▁gallu 397
▁keeping 397
▁needed 397
▁stadium 397
▁webmaster 397
熷 397
laus 396
▁corre 396
▁grain 396
▁greater 396
▁illegal 396
▁pika 396
荄 396
鍡 396
铫 396
cali 395
fte 395
ire 395
▁dah 395
▁financ 395
▁propaganda 395
▁terror 395
圊 395
胙 395
镘 395
▁aff 394
▁fier 394
▁pend 394
▁pol 394
▁rama 394
▁runt 394
糬 394
羼 394
顒 394
nova 393
▁consiste 393
▁obliga 393
▁qiy 393
▁stok 393
猋 393
▁appearance 392
▁legion 392
dez 391
ities 391
▁ano 391
▁creature 391
▁flirt 391
▁immer 391
▁installation 391
▁nun 391
▁thug 391
娡 391
昜 391
筅 391
▁explicit 390
亼 390
挢 390
攉 390
簙 390
薬 390
赱 390
ables 389
oth 389
ppar 389
vada 389
▁tire 389
轵 389
endi 388
lanti 388
shed 388
▁easier 388
▁newsletter 388
墁 388
徦 388
菥 388
蕫 388
譩 388
ias 387
▁according 387
▁documentation 387
▁kuku 387
▁neighbor 387
▁voucher 387
妧 387
幞 387
鍚 387
uce 386
▁characters 386
▁drone 386
▁hindu 386
▁wellness 386
妏 386
姳 386
崞 386
甡 386
ghetto 385
immigration 385
▁bombe 385
▁nearly 385
▁prospect 385
▁sind 385
▁ven 385
掤 385
眄 385
蒾 385
蕺 385
贶 385
躱 385
镹 385
master 384
▁helpful 384
▁immediate 384
▁opportunities 384
▁ple 384
▁roller 384
▁rue 384
▁temperature 384
夶 384
▁recta 383
硎 383
ece 382
ello 382
phor 382
steen 382
yard 382
▁administrative 382
▁distributor 382
▁satisfaction 382
▁vital 382
訏 382
ledge 381
mala 381
▁burde 381
▁deutsch 381
▁fez 381
▁furniture 381
▁goals 381
▁snack 381
▁victim 381
叄 381
堋 381
艉 381
螵 381
ark 380
unta 380
▁expensive 380
▁extract 380
▁factors 380
煺 380
狁 380
畎 380
荅 380
bula 379
dem 379
session 379
▁hali 379
▁minus 379
▁trage 379
▁typical 379
aza 378
▁conditions 378
▁oui 378
▁pension 378
▁unexpected 378
亣 378
牤 378
醢 378
鏀 378
骎 378
oro 377
spre 377
▁pros 377
▁pyramid 377
▁schw 377
▁visite 377
▁workout 377
跫 377
鲦 377
麇 377
cted 376
▁funeral 376
▁rugby 376
侂 376
蔴 376
魜 376
enses 375
jack 375
llen 375
rody 375
▁profiler 375
▁vam 375
▁violence 375
凢 375
cules 374
fu 374
ying 374
▁dicks 374
▁ernst 374
▁hva 374
▁recently 374
▁therefore 374
▁troj 374
怱 374
扆 374
睱 374
颃 374
▁barre 373
▁computa 373
▁learned 373
▁plans 373
▁reel 373
▁signed 373
▁sila 373
▁strand 373
揺 373
箖 373
芴 373
钔 373
guin 372
loma 372
lop 372
▁halen 372
▁significant 372
▁tamil 372
悃 372
滝 372
貭 372
piece 371
▁historical 371
▁preparation 371
▁runs 371
▁salmon 371
lender 370
ndri 370
▁highly 370
▁outcome 370
▁worse 370
稃 370
萆 370
蝻 370
baptis 369
cre 369
stop 369
▁borde 369
▁durant 369
▁lived 369
▁promet 369
▁representativ 369
▁tram 369
▁vino 369
吣 369
堔 369
玚 369
芰 369
鋐 369
飑 369
鵟 369
aux 368
pian 368
▁fina 368
▁graffiti 368
▁jour 368
▁ori 368
▁terre 368
▁vest 368
悧 368
礅 368
轺 368
驩 368
▁finland 367
▁pleasant 367
▁sabi 367
棪 367
禵 367
耔 367
cens 366
conscious 366
kar 366
tum 366
▁companies 366
▁constitution 366
▁useful 366
旡 366
硇 366
礐 366
郕 366
posit 365
▁privilege 365
▁reuni 365
▁species 365
▁spel 365
▁yay 365
廑 365
懔 365
鈅 365
active 364
rash 364
rink 364
▁decline 364
両 364
乆 364
歔 364
缧 364
location 363
rea 363
sura 363
▁advise 363
▁cour 363
▁facial 363
▁giver 363
▁odds 363
▁pene 363
▁rhe 363
▁visiting 363
巣 363
eman 362
lut 362
mad 362
▁asking 362
▁asyl 362
▁completed 362
▁intermedi 362
▁majority 362
▁regal 362
▁sens 362
怫 362
缐 362
覩 362
chine 361
nete 361
▁babi 361
▁dividend 361
▁marcia 361
▁sono 361
芏 361
▁diu 360
▁grin 360
▁mucho 360
▁nah 360
▁observe 360
叆 360
恴 360
瑧 360
蟮 360
隠 360
▁agents 359
▁alta 359
▁cald 359
▁oss 359
▁patrol 359
庒 359
棐 359
羑 359
踬 359
eks 358
foot 358
riet 358
stell 358
▁lessons 358
乇 358
奤 358
娚 358
竴 358
舄 358
▁citrus 357
▁dispose 357
仏 357
枵 357
▁foto 356
▁proper 356
▁skirt 356
▁sneakers 356
塝 356
菋 356
麺 356
gled 355
yu 355
▁alumni 355
▁incomp 355
▁involve 355
▁webcam 355
嬖 355
莙 355
郈 355
ena 354
later 354
mies 354
▁egy 354
▁pretend 354
▁rifle 354
嘡 354
姤 354
浛 354
湪 354
牎 354
茀 354
cus 353
pole 353
▁mineral 353
瞢 353
鷟 353
ddi 352
ulator 352
weg 352
▁confusion 352
▁magnific 352
▁represent 352
勲 352
祙 352
衎 352
锾 352
鷇 352
mr 351
tho 351
▁countries 351
▁including 351
▁inject 351
囦 351
暎 351
洫 351
螚 351
iana 350
velo 350
▁nami 350
囨 350
婬 350
嶆 350
觌 350
鹁 350
connect 349
pes 349
▁stran 349
佸 349
垲 349
镟 349
rium 348
▁skille 348
佀 348
佉 348
歴 348
縌 348
ingo 347
▁disappear 347
▁former 347
▁hashtag 347
▁held 347
▁relevant 347
▁rental 347
▁slu 347
姸 347
枍 347
沕 347
corrupt 346
spo 346
tuar 346
▁avia 346
▁comprehensive 346
▁gulf 346
▁lung 346
▁mik 346
螓 346
鄹 346
chip 345
make 345
sal 345
▁hosting 345
▁mati 345
▁roku 345
▁sami 345
▁trying 345
傉 345
朙 345
滳 345
艨 345
萢 345
觏 345
遹 345
▁brak 344
▁employer 344
▁facility 344
▁popcorn 344
▁prix 344
▁radical 344
菹 344
馇 344
existence 343
ification 343
koz 343
▁barco 343
▁mechanism 343
▁pollution 343
▁qan 343
劁 343
蝤 343
裒 343
酎 343
air 342
ndu 342
shan 342
stick 342
▁escort 342
▁lange 342
▁strid 342
▁uit 342
宍 342
彟 342
漖 342
瀵 342
脷 342
sted 341
ulin 341
wasa 341
▁exceed 341
▁primo 341
▁propose 341
▁wasn 341
嘠 341
媻 341
挼 341
迮 341
bane 340
ero 340
▁andro 340
▁erotic 340
▁racist 340
姧 340
慯 340
滃 340
篥 340
锎 340
▁franchise 339
▁haut 339
▁oro 339
▁rais 339
儚 339
榇 339
緾 339
clair 338
mico 338
▁bore 338
▁guidance 338
▁investigation 338
▁obvious 338
▁yogurt 338
笾 338
laska 337
rer 337
▁sites 337
▁soci 337
▁toi 337
▁violation 337
冄 337
挷 337
莀 337
蓂 337
衤 337
锖 337
bate 336
rup 336
▁accomplish 336
▁beli 336
▁exotic 336
▁slots 336
heat 335
lid 335
oval 335
▁alla 335
▁avoid 335
倞 335
傜 335
働 335
炻 335
磻 335
縠 335
鹓 335
hei 334
pto 334
rose 334
▁fro 334
▁illustration 334
▁optimist 334
詝 334
鞮 334
gang 333
▁exhaust 333
▁jana 333
▁lands 333
▁otherwise 333
埽 333
餸 333
bec 332
ddf 332
ruba 332
▁crimes 332
▁gabe 332
豿 332
els 331
hej 331
▁bake 331
▁bana 331
▁contrast 331
▁costs 331
▁dies 331
▁evolve 331
▁heroin 331
▁humans 331
暠 331
洅 331
鍪 331
飔 331
agriculture 330
ering 330
▁cigarette 330
▁copie 330
▁prodi 330
▁sake 330
▁thoughts 330
呮 330
gust 329
▁mamma 329
▁strat 329
▁visibili 329
厣 329
舘 329
cum 328
four 328
hui 328
▁compound 328
▁gameplay 328
▁willing 328
媗 328
綪 328
莸 328
襻 328
闘 328
雱 328
audi 327
lga 327
meridian 327
▁polit 327
▁robust 327
▁rooms 327
▁seems 327
▁skool 327
匦 327
寜 327
kai 326
kumar 326
ned 326
poca 326
spite 326
▁election 326
▁elevato 326
▁genuin 326
▁toner 326
壸 326
澉 326
鼗 326
hara 325
normal 325
▁fut 325
禔 325
芄 325
鈈 325
als 324
fen 324
identification 324
lend 324
ncing 324
▁boule 324
▁developing 324
▁ket 324
▁ludo 324
▁ove 324
觳 324
钀 324
gami 323
▁afford 323
▁bonita 323
▁gest 323
▁rol 323
▁usual 323
戞 323
禘 323
胔 323
跘 323
▁ach 322
▁biggest 322
▁hamburger 322
▁superior 322
瑨 322
蔌 322
躞 322
黱 322
cot 321
▁arrest 321
▁isla 321
▁monument 321
樻 321
漭 321
璂 321
籓 321
top 320
▁changer 320
▁fully 320
▁harmoni 320
▁improvement 320
▁monde 320
▁subur 320
沷 320
痖 320
鄀 320
鲺 320
dium 319
hip 319
▁bodo 319
▁compensa 319
▁glan 319
▁loi 319
郿 319
chan 318
dorf 318
rce 318
ww 318
▁fraud 318
▁mem 318
▁responsible 318
搿 318
琋 318
豖 318
eline 317
vro 317
▁hos 317
▁orgasm 317
▁paus 317
▁spray 317
嗏 317
堎 317
潽 317
裑 317
▁attract 316
▁bookmark 316
▁shows 316
侁 316
燏 316
bore 315
lette 315
▁advocate 315
▁monopol 315
▁paragraph 315
▁requi 315
▁sisse 315
▁tack 315
▁weld 315
墕 315
屲 315
汸 315
珝 315
瑥 315
甁 315
蒉 315
▁assumption 314
▁barnet 314
▁caught 314
▁conduct 314
▁passed 314
▁pastel 314
▁shah 314
▁spiral 314
仐 314
噷 314
垤 314
欐 314
leta 313
▁aspirin 313
▁consul 313
▁loma 313
▁ort 313
▁spl 313
鈫 313
film 312
wers 312
▁amin 312
▁blond 312
▁gusta 312
▁urgent 312
坬 312
玊 312
荖 312
bber 311
heit 311
loon 311
nin 311
ological 311
sho 311
▁delicat 311
婞 311
iden 310
izer 310
▁buying 310
▁fahren 310
▁followers 310
▁hoa 310
▁vegeta 310
猄 310
舣 310
茺 310
麹 310
ernes 309
▁arte 309
▁capo 309
▁fleur 309
▁inspired 309
▁occur 309
▁sensibil 309
▁sorte 309
▁themselves 309
伩 309
唅 309
鍐 309
鍟 309
鲃 309
gener 308
▁federa 308
▁polis 308
楗 308
铘 308
song 307
vision 307
▁coaching 307
▁convince 307
▁customers 307
▁glori 307
▁indo 307
▁robe 307
tera 306
▁completely 306
▁crap 306
▁occasion 306
揎 306
矧 306
鐗 306
limo 305
mh 305
▁automobile 305
▁camping 305
▁maxima 305
▁temper 305
▁tropical 305
▁ves 305
卌 305
疒 305
碡 305
鈎 305
fei 304
halle 304
miss 304
▁cardinal 304
▁familiar 304
▁norr 304
▁significa 304
▁vom 304
摅 304
砹 304
踔 304
飖 304
tale 303
▁alternat 303
▁govern 303
▁incentive 303
▁literally 303
▁reform 303
▁structura 303
絷 303
綄 303
颩 303
dona 302
▁divas 302
▁terminat 302
▁toon 302
惝 302
斲 302
殅 302
艟 302
蔘 302
fuck 301
garten 301
uan 301
▁attorney 301
▁sich 301
夂 301
夋 301
彅 301
牮 301
鐪 301
vali 300
▁addition 300
▁colo 300
▁definitely 300
▁hoang 300
▁larger 300
▁months 300
▁submarin 300
坵 300
畵 300
▁accelerat 299
▁smoothie 299
▁somehow 299
杮 299
狌 299
酲 299
ano 298
ffi 298
▁consensu 298
▁maintain 298
▁opposite 298
▁riche 298
▁tub 298
侊 298
band 297
gri 297
mend 297
tenant 297
will 297
▁grateful 297
▁humana 297
妎 297
礌 297
赙 297
鍌 297
饔 297
鸊 297
lda 296
missions 296
nding 296
▁concurrent 296
▁fati 296
▁hast 296
▁ridiculous 296
卲 296
摰 296
栤 296
犲 296
翯 296
薫 296
锽 296
靬 296
▁atmosphere 295
▁established 295
▁handling 295
▁moro 295
▁mortal 295
▁nya 295
▁penalty 295
▁prepared 295
寃 295
淰 295
饣 295
aro 294
bot 294
nade 294
▁associated 294
▁chor 294
▁gau 294
▁glu 294
▁kilo 294
▁universiti 294
忞 294
脿 294
苳 294
ador 293
clam 293
▁dor 293
▁horizontal 293
▁kang 293
▁searching 293
▁valuable 293
掱 293
濆 293
踺 293
遘 293
ain 292
nok 292
occupation 292
▁accessori 292
▁attractive 292
▁dane 292
佲 292
勥 292
勼 292
昪 292
櫈 292
鬄 292
hir 291
nit 291
▁slut 291
壆 291
廸 291
酴 291
bt 290
nine 290
of 290
smo 290
▁dragoste 290
▁intense 290
▁nak 290
▁proposition 290
▁recon 290
▁syndicat 290
▁turno 290
伾 290
菑 290
鸑 290
tons 289
▁judgment 289
▁profession 289
俍 289
岞 289
悕 289
柟 289
aggregat 288
lu 288
▁argu 288
▁fucked 288
▁laundry 288
哊 288
弍 288
愰 288
汧 288
涘 288
玭 288
甃 288
簏 288
裉 288
sci 287
▁attempt 287
▁breast 287
▁corpus 287
▁devo 287
▁jina 287
▁mudd 287
▁nerv 287
▁textil 287
▁ura 287
嗾 287
舻 287
lman 286
▁forces 286
▁supplement 286
塲 286
庁 286
珹 286
贳 286
rak 285
▁dominant 285
▁gira 285
▁inclusive 285
噏 285
嚸 285
嫐 285
貎 285
inky 284
spon 284
▁commodo 284
▁elin 284
▁indonesia 284
▁infant 284
▁tung 284
巘 284
朿 284
瓈 284
lian 283
▁assume 283
▁ignora 283
▁kaya 283
▁mala 283
埏 283
掲 283
箢 283
鄚 283
鲊 283
ryn 282
▁escr 282
▁loko 282
▁meant 282
▁produced 282
噚 282
拫 282
牐 282
覇 282
ants 281
lder 281
nne 281
rem 281
stas 281
▁blus 281
▁incident 281
▁prudent 281
寀 281
嵝 281
湳 281
▁decora 280
▁hava 280
▁israel 280
▁mold 280
▁testament 280
夣 280
cao 279
gran 279
qual 279
▁conscience 279
▁duplica 279
▁ful 279
▁vinyl 279
姁 279
楀 279
蟜 279
譲 279
je 278
trac 278
婓 278
尪 278
湣 278
濋 278
牭 278
xl 277
暒 277
楱 277
覧 277
赿 277
gwa 276
kl 276
lone 276
matic 276
▁began 276
▁devi 276
▁perfection 276
弶 276
彵 276
従 276
pus 275
ras 275
syn 275
▁aroma 275
▁complaint 275
▁gaba 275
▁intensiv 275
噍 275
忭 275
淉 275
犝 275
鎭 275
骵 275
hal 274
usa 274
zen 274
▁calculator 274
▁musica 274
▁tickets 274
▁yog 274
坌 274
戽 274
礭 274
祾 274
dest 273
llis 273
mutter 273
▁amateur 273
▁bello 273
▁retire 273
寑 273
嶅 273
斝 273
檞 273
氕 273
睌 273
geb 272
mper 272
▁bout 272
▁categorie 272
▁governo 272
▁hehehe 272
▁nem 272
▁patriot 272
▁procure 272
▁recrea 272
▁ure 272
嫠 272
廌 272
擐 272
暲 272
瑆 272
耂 272
mers 271
▁kraft 271
▁sko 271
▁towards 271
▁vain 271
▁vor 271
屼 271
蟳 271
鳑 271
beri 270
given 270
▁cresce 270
▁ello 270
▁gourmet 270
▁pru 270
▁spaghetti 270
熤 270
盉 270
砢 270
窊 270
▁easily 269
▁illumina 269
▁nag 269
▁revela 269
▁viral 269
傺 269
儛 269
斿 269
橞 269
洨 269
牸 269
皝 269
筻 269
▁consent 268
▁consideration 268
▁covered 268
▁intim 268
▁moni 268
▁ord 268
▁slang 268
倢 268
奷 268
瑫 268
碃 268
蔂 268
蟪 268
込 268
▁combination 267
▁instructor 267
▁mein 267
▁respond 267
▁scrap 267
亹 267
傒 267
喓 267
墈 267
廆 267
綉 267
霙 267
nus 266
▁bolo 266
▁confidential 266
▁identify 266
▁lice 266
▁stake 266
啇 266
洚 266
洢 266
鑳 266
dering 265
mm 265
range 265
▁arma 265
▁islam 265
▁lagu 265
▁norwegian 265
庡 265
搌 265
柙 265
潾 265
璆 265
龁 265
erland 264
kauf 264
▁blogs 264
▁explora 264
▁hod 264
▁maine 264
▁oto 264
▁postal 264
▁suspect 264
坣 264
罝 264
罨 264
ilt 263
imo 263
lee 263
▁homosexual 263
▁household 263
▁muffin 263
▁realist 263
▁trendy 263
掎 263
癃 263
簖 263
wic 262
▁litt 262
▁similar 262
廯 262
犮 262
瘳 262
罣 262
madi 261
polis 261
tem 261
▁cleaning 261
▁fruits 261
▁motto 261
▁ovat 261
▁sover 261
卽 261
檤 261
瘐 261
窅 261
鳓 261
▁eleva 260
▁invasi 260
▁liebe 260
▁sustainable 260
▁vast 260
懐 260
鮨 260
venant 259
▁ambiti 259
▁dose 259
▁hav 259
▁herself 259
▁kare 259
▁mast 259
▁missed 259
▁provision 259
▁sympa 259
▁turbin 259
啍 259
柸 259
靣 259
enstein 258
jian 258
system 258
▁bane 258
▁dire 258
▁divorce 258
▁dixi 258
▁messa 258
▁recognize 258
觧 258
阼 258
cles 257
▁destruction 257
▁encourage 257
▁meh 257
▁sian 257
▁skyr 257
▁suspens 257
岵 257
懓 257
猃 257
訚 257
跞 257
ement 256
fic 256
lapse 256
shma 256
▁charges 256
▁dressing 256
▁ikki 256
▁relationships 256
▁released 256
岄 256
観 256
dar 255
rbi 255
tti 255
▁monitoring 255
▁recommended 255
▁techniques 255
▁ville 255
嵫 255
绋 255
舳 255
苠 255
迚 255
mann 254
ulum 254
▁circulation 254
▁committed 254
▁pleased 254
▁trauma 254
呉 254
槤 254
犚 254
絺 254
锞 254
hear 253
inne 253
makers 253
▁defend 253
▁donat 253
▁marta 253
▁shampoo 253
▁ung 253
▁vent 253
倷 253
氭 253
犓 253
锫 253
block 252
▁ended 252
▁verti 252
咑 252
篯 252
艶 252
跂 252
鞯 252
opter 251
volta 251
▁chyn 251
▁lama 251
▁played 251
▁pus 251
▁sund 251
冋 251
剰 251
忚 251
栴 251
畯 251
酾 251
馫 251
firma 250
food 250
ole 250
quel 250
riga 250
▁hearing 250
▁lied 250
▁motive 250
杍 250
砑 250
紶 250
馘 250
鳘 250
anana 249
cute 249
morph 249
pse 249
▁pil 249
▁provided 249
価 249
圤 249
埜 249
寯 249
嶒 249
氇 249
湁 249
牶 249
plus 248
wall 248
wd 248
▁annet 248
▁bosh 248
▁magna 248
椠 248
樛 248
dul 247
mura 247
plat 247
rip 247
ua 247
▁bok 247
▁concentration 247
▁copa 247
▁optimal 247
▁slab 247
▁spent 247
勅 247
囲 247
婗 247
葜 247
蒓 247
ced 246
diq 246
quality 246
rin 246
wand 246
▁coordinat 246
▁educat 246
▁investiga 246
▁kha 246
▁pakistan 246
▁tribun 246
婑 246
蓶 246
趱 246
閮 246
雑 246
▁aussi 245
▁circles 245
▁helping 245
▁packaging 245
▁reserva 245
卄 245
哬 245
笭 245
舴 245
袷 245
讃 245
cake 244
duct 244
ntia 244
tima 244
tine 244
year 244
▁editorial 244
▁pana 244
▁reag 244
▁rug 244
▁savi 244
▁strain 244
▁tyle 244
枓 244
牷 244
犳 244
睃 244
窢 244
紝 244
綑 244
镅 244
cris 243
mbala 243
ounded 243
paz 243
▁comparison 243
▁converti 243
▁efforts 243
▁ourselves 243
▁stor 243
▁trait 243
仧 243
呪 243
噐 243
奨 243
攺 243
暼 243
渫 243
痄 243
醸 243
陴 243
bles 242
▁compatibil 242
▁electr 242
▁filled 242
▁petite 242
▁pounds 242
▁ramp 242
▁suffering 242
▁supposed 242
呡 242
姉 242
媣 242
忮 242
渽 242
蟛 242
踦 242
蹻 242
鏅 242
镈 242
front 241
lain 241
ops 241
quis 241
res 241
▁entri 241
▁garde 241
▁guests 241
▁pais 241
▁stabilit 241
侭 241
珦 241
踰 241
bag 240
fraction 240
grim 240
戱 240
溁 240
祔 240
繖 240
迕 240
镩 240
颋 240
ave 239
cze 239
esta 239
nty 239
otti 239
▁amiga 239
▁attached 239
▁equivalent 239
▁pavar 239
▁poverty 239
▁vader 239
亀 239
叚 239
嵎 239
憙 239
捽 239
柷 239
绲 239
舲 239
虮 239
诖 239
遈 239
hou 238
preci 238
send 238
▁bien 238
▁bunch 238
▁cabo 238
▁dunha 238
▁galleri 238
劓 238
徧 238
濊 238
箞 238
罱 238
觫 238
鍖 238
駄 238
het 237
imp 237
itor 237
mur 237
pression 237
▁cabinet 237
▁experts 237
▁offensiv 237
▁pimp 237
▁satisfied 237
▁skyn 237
▁valor 237
▁veteran 237
啴 237
嗼 237
弝 237
籣 237
藸 237
谫 237
颻 237
cion 236
door 236
epe 236
▁disappointed 236
▁explanation 236
▁families 236
▁hewl 236
▁illness 236
▁nach 236
▁relat 236
▁restrict 236
楛 236
罥 236
茝 236
躔 236
遯 236
anie 235
ann 235
▁artistic 235
▁helps 235
▁mexi 235
▁palla 235
▁tried 235
仩 235
氆 235
狝 235
瑒 235
穸 235
舁 235
谿 235
鄘 235
鐏 235
骙 235
cara 234
elo 234
path 234
▁ambas 234
▁doesn 234
▁hora 234
▁ning 234
▁strap 234
▁watched 234
勹 234
娿 234
戠 234
洈 234
苝 234
edu 233
nelle 233
oi 233
▁caramel 233
▁fent 233
▁incorpora 233
▁ote 233
▁separa 233
▁teri 233
彣 233
惔 233
済 233
芤 233
菛 233
ament 232
cial 232
har 232
nggo 232
ooo 232
rust 232
▁clubs 232
▁emp 232
▁kut 232
▁luz 232
▁macar 232
▁ramen 232
幇 232
揷 232
搥 232
篃 232
闂 232
escent 231
gen 231
ladi 231
nke 231
oli 231
pap 231
sensitiv 231
tella 231
▁accommodation 231
▁amar 231
▁americano 231
▁crucial 231
▁elimina 231
▁fetish 231
▁intens 231
▁mois 231
▁vay 231
嗍 231
菝 231
跐 231
钖 231
阌 231
cati 230
hockey 230
lizar 230
ont 230
pare 230
show 230
▁advent 230
▁bhi 230
▁panorama 230
▁pinna 230
▁vibra 230
詺 230
andri 229
lib 229
ntino 229
▁rates 229
▁slightly 229
佹 229
浡 229
絪 229
莶 229
藨 229
kho 228
lift 228
post 228
rath 228
rons 228
▁bronz 228
▁contribute 228
▁frem 228
▁frequent 228
▁het 228
▁insect 228
▁lur 228
▁norway 228
偱 228
僜 228
婻 228
敔 228
汣 228
袼 228
裰 228
諟 228
酤 228
鍞 228
cov 227
▁pry 227
埫 227
塽 227
昚 227
狆 227
猓 227
粨 227
鹆 227
asti 226
geh 226
hay 226
▁carpet 226
▁dates 226
▁fest 226
▁importance 226
▁justifi 226
▁naka 226
▁turned 226
卨 226
垨 226
媱 226
滒 226
苺 226
葎 226
蓇 226
薡 226
anza 225
atti 225
▁informal 225
▁regulator 225
忈 225
橒 225
牜 225
粻 225
謌 225
鎚 225
韮 225
騄 225
carre 224
olta 224
rais 224
▁compete 224
▁saba 224
溡 224
缍 224
羮 224
肸 224
茓 224
atra 223
pre 223
▁arrived 223
▁clients 223
▁integral 223
▁rein 223
▁several 223
▁vot 223
亱 223
涳 223
獍 223
珎 223
琹 223
窭 223
罽 223
铏 223
sum 222
▁fond 222
▁libre 222
▁stopped 222
▁vegan 222
▁vehicles 222
囸 222
岣 222
祏 222
苶 222
barra 221
stry 221
tering 221
toria 221
▁affordable 221
▁deriva 221
▁dil 221
▁employees 221
▁excess 221
▁hari 221
▁illustra 221
▁mostly 221
▁raja 221
▁satria 221
剅 221
哿 221
崄 221
幪 221
懮 221
挿 221
肭 221
莃 221
蔠 221
ety 220
geria 220
nay 220
nr 220
passion 220
rmi 220
▁comma 220
▁consistent 220
▁cougar 220
▁horrible 220
▁rural 220
▁xinh 220
恠 220
恧 220
櫆 220
纻 220
譕 220
餹 220
div 219
iers 219
istica 219
nos 219
shar 219
skade 219
▁conception 219
▁faca 219
▁mote 219
▁worked 219
紵 219
醭 219
鋈 219
闍 219
鲘 219
lings 218
▁filan 218
▁laut 218
剘 218
廒 218
曐 218
焌 218
稥 218
簰 218
翂 218
訁 218
铔 218
閦 218
鬏 218
zing 217
▁defect 217
▁obli 217
凨 217
妠 217
姞 217
悾 217
槔 217
猰 217
鸻 217
alle 216
idan 216
tip 216
wide 216
▁adopt 216
▁ammo 216
▁aspects 216
▁ciri 216
▁dina 216
▁escala 216
▁insigni 216
▁tien 216
佽 216
傛 216
崦 216
掑 216
棯 216
欎 216
绹 216
菭 216
animal 215
cola 215
fit 215
kov 215
maran 215
sexual 215
▁carton 215
▁dental 215
▁ecologic 215
▁entertain 215
▁jud 215
▁oslo 215
▁pila 215
▁pina 215
▁possibility 215
▁statu 215
媃 215
崋 215
枊 215
爇 215
缊 215
貐 215
鲒 215
鼔 215
allah 214
folk 214
ros 214
▁baja 214
▁bene 214
▁fonda 214
▁surprising 214
仴 214
叧 214
枬 214
筯 214
葖 214
蠼 214
鉂 214
锳 214
鹖 214
track 213
▁compromis 213
▁distant 213
▁monter 213
▁protest 213
▁spoiler 213
啋 213
坲 213
嫽 213
慥 213
沝 213
缋 213
衖 213
鑺 213
锍 213
镥 213
鷄 213
nnan 212
▁assistance 212
▁beni 212
▁deficit 212
▁extent 212
▁innovative 212
▁mare 212
▁physician 212
▁tagged 212
▁tarz 212
楙 212
淓 212
琭 212
痾 212
苪 212
鎌 212
fler 211
isha 211
istic 211
knop 211
vik 211
▁ceramic 211
▁cottage 211
▁gracias 211
▁literar 211
▁looked 211
▁observation 211
▁spinn 211
▁terrain 211
乗 211
俤 211
埯 211
璚 211
瘥 211
薁 211
饩 211
stolen 210
talo 210
▁floral 210
▁glaci 210
▁havne 210
▁listed 210
▁magnetic 210
牬 210
甓 210
縢 210
芓 210
裇 210
趑 210
drop 209
news 209
▁became 209
▁deri 209
▁developed 209
▁digi 209
▁ensure 209
▁obtain 209
▁poser 209
▁prevent 209
▁sore 209
斉 209
牻 209
瞀 209
簠 209
肀 209
臑 209
鳮 209
absence 208
ager 208
mele 208
▁absent 208
▁barbecue 208
▁dentist 208
▁tez 208
▁yer 208
亁 208
僬 208
吙 208
寘 208
揲 208
栒 208
梒 208
潃 208
祹 208
簁 208
郪 208
crypt 207
stor 207
▁determina 207
▁differenti 207
▁expectations 207
▁preliminar 207
▁ritual 207
▁taj 207
▁turk 207
▁vaccin 207
仦 207
佂 207
哳 207
峮 207
槼 207
皕 207
硁 207
粬 207
誩 207
韺 207
chin 206
emplo 206
ible 206
mento 206
wyd 206
▁assure 206
▁concerned 206
▁dimensions 206
▁indicate 206
▁monarch 206
▁sacra 206
▁thousands 206
▁vand 206
忛 206
槀 206
竻 206
have 205
match 205
meter 205
rati 205
▁detox 205
▁neste 205
▁surgery 205
冃 205
噵 205
涚 205
渢 205
縦 205
赪 205
鄕 205
mates 204
▁highest 204
▁hilo 204
▁injury 204
▁jardin 204
▁prices 204
▁spas 204
忕 204
晅 204
涫 204
澛 204
牼 204
犎 204
瑝 204
bile 203
far 203
xes 203
▁disposa 203
▁implement 203
▁ongoing 203
▁pena 203
圴 203
浵 203
疰 203
翣 203
螋 203
鈩 203
鲚 203
rma 202
▁clearly 202
▁esta 202
▁gluten 202
▁happening 202
▁helm 202
▁includes 202
▁lle 202
▁proceed 202
▁standa 202
▁tuna 202
丠 202
奡 202
婥 202
悰 202
枹 202
疎 202
紸 202
羝 202
踣 202
迗 202
jor 201
simi 201
▁catalogue 201
▁cer 201
▁convenient 201
▁mga 201
▁souvenir 201
検 201
檑 201
泇 201
穏 201
綖 201
菫 201
豋 201
cari 200
oko 200
▁extraordinar 200
勠 200
奍 200
揑 200
曁 200
犘 200
芶 200
酂 200
锸 200
閙 200
istes 199
occhio 199
riat 199
▁acknowledge 199
▁langer 199
▁pays 199
▁unusual 199
仒 199
尦 199
瀼 199
筎 199
韘 199
鹨 199
cross 198
hany 198
▁guidelines 198
▁paa 198
▁zwei 198
乣 198
玬 198
籺 198
縁 198
邒 198
黹 198
cked 197
obi 197
▁brutal 197
▁comparativ 197
▁democratic 197
▁gloss 197
▁personnel 197
▁soco 197
▁touche 197
▁tug 197
▁wearing 197
濩 197
爝 197
牰 197
犜 197
笒 197
継 197
胂 197
chet 196
feder 196
kron 196
wal 196
▁discret 196
▁journalist 196
▁paz 196
囮 196
惓 196
捰 196
氼 196
脬 196
鞞 196
rom 195
▁astronaut 195
▁finit 195
▁tym 195
嚆 195
婇 195
弌 195
渂 195
熸 195
砉 195
碹 195
繝 195
藦 195
譁 195
頼 195
鼢 195
bana 194
core 194
pharma 194
▁cereal 194
▁circular 194
▁existing 194
▁pater 194
▁paying 194
▁peso 194
▁politici 194
嬬 194
殪 194
蔄 194
蝂 194
誃 194
躐 194
drow 193
hard 193
spring 193
tant 193
veda 193
▁anar 193
▁astronom 193
▁capable 193
▁danes 193
▁dorm 193
▁extremely 193
▁latino 193
▁rami 193
▁tend 193
▁tissu 193
俆 193
婂 193
炶 193
皯 193
禒 193
簃 193
lize 192
rro 192
▁acto 192
▁blackjack 192
▁bondage 192
▁jab 192
▁mend 192
寖 192
岕 192
牳 192
璄 192
艩 192
蘾 192
褆 192
赕 192
軽 192
钷 192
鲏 192
krishna 191
rabia 191
▁anh 191
▁focused 191
▁hain 191
▁mayor 191
▁modest 191
▁reliable 191
呾 191
啝 191
婍 191
槇 191
甗 191
藴 191
ela 190
harmoni 190
while 190
▁cuisine 190
▁gaya 190
▁habitat 190
▁oven 190
▁pomo 190
▁prea 190
熇 190
苐 190
inc 189
mys 189
ndr 189
soft 189
▁bergen 189
▁bonne 189
▁dans 189
▁fortuna 189
▁opened 189
▁playoff 189
▁raff 189
▁rak 189
冩 189
圙 189
垈 189
夌 189
揵 189
梣 189
蒎 189
轹 189
钘 189
锪 189
骍 189
appoint 188
▁appetit 188
▁dala 188
▁impressed 188
旴 188
榣 188
泶 188
矤 188
鉲 188
鐡 188
鑹 188
镎 188
龀 188
eder 187
finder 187
fortuna 187
linder 187
quat 187
sin 187
▁brin 187
▁chal 187
▁fiscal 187
▁parties 187
▁roulette 187
啨 187
嘙 187
夐 187
摛 187
羱 187
脞 187
貮 187
闄 187
bw 186
cycling 186
ezer 186
gade 186
lasse 186
sound 186
▁' 186
▁azul 186
▁belgi 186
▁brasil 186
▁experiences 186
▁facilities 186
▁melan 186
奻 186
媤 186
宼 186
峠 186
煐 186
睩 186
矞 186
簦 186
蓧 186
蝟 186
鉏 186
餗 186
fet 185
oka 185
usan 185
wo 185
▁compared 185
▁entire 185
▁refere 185
唃 185
杬 185
犂 185
皦 185
苽 185
誐 185
迖 185
鐩 185
owned 184
wende 184
▁adults 184
▁akin 184
▁kaza 184
▁nye 184
▁policies 184
▁sitter 184
▁tart 184
刬 184
勷 184
曚 184
杻 184
磉 184
緐 184
舯 184
萑 184
蕶 184
虼 184
訸 184
迀 184
頠 184
鼱 184
amon 183
usage 183
▁ambula 183
▁augusta 183
▁bunker 183
▁cinn 183
▁mainstream 183
▁mase 183
▁reprise 183
▁spore 183
刄 183
媌 183
誀 183
鲌 183
sufficient 182
▁concentrat 182
▁eam 182
▁exceptional 182
▁marge 182
▁paci 182
▁republica 182
▁stare 182
▁vacuum 182
夆 182
樿 182
烋 182
皜 182
礓 182
筢 182
筽 182
紥 182
銶 182
閰 182
齢 182
lifting 181
mil 181
▁ingredients 181
▁kina 181
▁laboratori 181
▁soli 181
咍 181
埈 181
峃 181
忎 181
敫 181
晫 181
瑅 181
篸 181
耩 181
褷 181
鄩 181
铚 181
belle 180
hur 180
serve 180
taire 180
tona 180
tors 180
▁baha 180
▁donation 180
▁generally 180
▁imaginar 180
▁lah 180
▁numero 180
▁peu 180
▁readers 180
▁salle 180
▁satisf 180
愺 180
湅 180
犨 180
禕 180
缲 180
薀 180
锊 180
鮎 180
center 179
fica 179
▁decrease 179
▁dole 179
▁envelop 179
▁helo 179
▁muslim 179
▁reported 179
▁rien 179
▁shak 179
▁spending 179
庀 179
柺 179
栬 179
瘅 179
秏 179
肈 179
舭 179
茽 179
賍 179
illo 178
nu 178
▁augusti 178
▁bait 178
▁skit 178
仹 178
搢 178
璪 178
甽 178
茇 178
逭 178
sque 177
▁chances 177
▁claims 177
▁decided 177
▁krog 177
▁planned 177
▁returned 177
▁senator 177
匋 177
厔 177
嵚 177
挩 177
楳 177
纆 177
苢 177
蟞 177
鲴 177
鹱 177
stille 176
▁banque 176
▁cest 176
▁homem 176
▁mens 176
▁protector 176
▁trou 176
▁urge 176
妚 176
姈 176
嫆 176
碏 176
茪 176
銎 176
锬 176
鞡 176
ache 175
bh 175
ders 175
hita 175
wol 175
▁accurate 175
▁admira 175
▁brought 175
▁compre 175
▁dwa 175
▁hoe 175
▁nava 175
▁portugal 175
▁tali 175
▁tied 175
▁understood 175
厰 175
唞 175
攃 175
旣 175
枖 175
簭 175
繻 175
羕 175
艚 175
葰 175
驵 175
lanka 174
stria 174
▁hormone 174
侕 174
倧 174
吪 174
嚩 174
甹 174
莋 174
謿 174
鍩 174
镴 174
閖 174
vira 173
weight 173
▁boca 173
▁creating 173
▁diabetes 173
▁historic 173
▁informe 173
▁percentage 173
丂 173
帰 173
昫 173
毵 173
泂 173
脎 173
蔲 173
鏸 173
鰕 173
鼷 173
employed 172
lm 172
rigo 172
ringer 172
▁adorable 172
▁geta 172
▁residenti 172
侒 172
囩 172
槅 172
歛 172
渀 172
琞 172
瑊 172
瘵 172
皊 172
盩 172
笱 172
罃 172
賨 172
dex 171
dine 171
gni 171
hew 171
part 171
▁gives 171
▁nha 171
▁psa 171
▁stam 171
▁viet 171
仌 171
劂 171
匴 171
巂 171
怣 171
槡 171
皁 171
芠 171
襌 171
阛 171
coach 170
ncyclopedia 170
oms 170
▁adi 170
▁causes 170
▁dedicated 170
▁religious 170
亷 170
懽 170
榱 170
灋 170
牱 170
皐 170
瞐 170
砮 170
糥 170
繎 170
蚾 170
蜖 170
靉 170
ners 169
nick 169
weis 169
▁aunty 169
咡 169
圡 169
挒 169
焠 169
瓅 169
裼 169
赮 169
鳀 169
come 168
sberg 168
tris 168
▁largo 168
▁requires 168
▁viagra 168
▁voy 168
嚈 168
垞 168
灜 168
炩 168
礞 168
笶 168
絯 168
餬 168
erie 167
ust 167
▁concur 167
▁incorrect 167
▁maddi 167
▁mena 167
▁nouvelle 167
▁regis 167
▁remo 167
▁soko 167
伹 167
俛 167
凴 167
嚢 167
寕 167
朥 167
郍 167
dame 166
hey 166
kaze 166
kram 166
zaki 166
▁areas 166
▁bizarre 166
▁eski 166
▁fairly 166
▁instructions 166
▁shown 166
▁suitable 166
凮 166
囎 166
曟 166
朢 166
溍 166
玶 166
腙 166
heim 165
tian 165
▁arco 165
▁cami 165
▁eventually 165
▁medieval 165
▁nomine 165
▁vendet 165
偠 165
嶲 165
梽 165
泃 165
郚 165
鄫 165
glass 164
lied 164
posi 164
▁abo 164
▁bah 164
▁blou 164
▁dominio 164
▁nocturn 164
▁ose 164
▁reserv 164
佡 164
圐 164
婄 164
彔 164
戣 164
滈 164
犆 164
眜 164
蒍 164
蓆 164
錞 164
ader 163
cela 163
hon 163
oir 163
▁akik 163
▁barn 163
▁bilan 163
▁carta 163
▁censu 163
▁expira 163
▁frustra 163
▁oxid 163
▁peli 163
嬫 163
椂 163
絅 163
葼 163
裈 163
觖 163
跽 163
邧 163
锼 163
靰 163
any 162
gnac 162
ians 162
▁cinci 162
▁compila 162
▁domina 162
▁herbal 162
▁included 162
▁participation 162
▁polyester 162
▁stanza 162
岍 162
怳 162
憇 162
捃 162
擿 162
楄 162
櫏 162
氶 162
煴 162
盺 162
碥 162
罙 162
茘 162
葽 162
蓢 162
argent 161
elin 161
fusion 161
rre 161
tio 161
▁detailed 161
▁futura 161
▁pali 161
▁removed 161
圀 161
慓 161
柈 161
焮 161
铦 161
cam 160
rador 160
rank 160
shirts 160
zed 160
▁amino 160
▁fand 160
▁frequently 160
▁millions 160
▁mula 160
▁prob 160
▁slid 160
▁tampa 160
▁travers 160
偣 160
坫 160
娒 160
灡 160
焼 160
畱 160
薢 160
衕 160
諣 160
迋 160
鞴 160
鳡 160
ret 159
take 159
usias 159
uzu 159
xio 159
▁appropriate 159
▁lindo 159
▁precise 159
▁servo 159
▁worship 159
妸 159
撴 159
栘 159
桲 159
権 159
犗 159
窋 159
窬 159
阓 159
鲗 159
gala 158
ich 158
nima 158
stress 158
▁aide 158
▁chant 158
▁eel 158
▁kept 158
▁llama 158
▁longo 158
▁raised 158
偪 158
峧 158
挌 158
昩 158
晣 158
棫 158
氍 158
煈 158
綎 158
緍 158
緺 158
assemble 157
inen 157
math 157
vale 157
▁alu 157
▁defensiv 157
▁dispute 157
▁increasing 157
▁involved 157
儏 157
勫 157
嘦 157
嬾 157
廴 157
樉 157
欑 157
緢 157
蘘 157
訷 157
饦 157
馼 157
ctio 156
fort 156
pier 156
yan 156
▁bracelet 156
▁dona 156
▁flores 156
▁mitt 156
嫤 156
晛 156
欓 156
驒 156
uke 155
▁burgu 155
▁definitiv 155
▁nowa 155
▁peaks 155
▁pediatr 155
▁tiempo 155
亐 155
伷 155
咉 155
唓 155
墚 155
孞 155
暦 155
甛 155
眵 155
鄮 155
隣 155
鮏 155
melo 154
quez 154
urre 154
▁alvor 154
▁appears 154
▁fres 154
▁manifesto 154
▁opinions 154
▁prostitu 154
▁screening 154
▁tortur 154
呬 154
唣 154
塁 154
悢 154
樶 154
潕 154
猸 154
玼 154
筊 154
躜 154
鲕 154
how 153
ines 153
inten 153
liu 153
state 153
▁aku 153
▁badminton 153
▁cea 153
▁dob 153
▁folks 153
▁godz 153
▁identified 153
▁imperfect 153
▁kart 153
▁massimo 153
▁obses 153
吀 153
妡 153
扱 153
拵 153
畄 153
砯 153
粣 153
蜾 153
醑 153
閟 153
ential 152
garri 152
pti 152
▁accesso 152
▁baz 152
▁blanco 152
▁conspira 152
▁juvenil 152
▁ngu 152
▁planes 152
倁 152
夀 152
朏 152
榅 152
榼 152
犐 152
芼 152
萛 152
蒳 152
蕝 152
觽 152
黡 152
ay 151
cht 151
ech 151
sein 151
vert 151
▁marked 151
▁prim 151
▁thang 151
儊 151
哾 151
掞 151
晥 151
椇 151
榍 151
檵 151
涗 151
瓌 151
眏 151
穉 151
笵 151
縄 151
纩 151
輑 151
cuba 150
fully 150
gne 150
nig 150
rub 150
stopp 150
versi 150
▁brigad 150
▁chez 150
▁isola 150
▁lisas 150
▁puke 150
唝 150
囃 150
拤 150
梱 150
砘 150
襕 150
鉾 150
铓 150
gget 149
sitter 149
sto 149
▁fud 149
▁guerre 149
▁jackpot 149
▁possibly 149
▁slipper 149
▁tournament 149
▁vagina 149
姎 149
椑 149
砩 149
粦 149
糼 149
缏 149
耱 149
聡 149
腽 149
躄 149
fam 148
hni 148
inn 148
rit 148
werk 148
▁emme 148
▁maji 148
▁olo 148
▁rivier 148
▁sopra 148
▁terrorist 148
▁yaz 148
抅 148
挙 148
搱 148
栧 148
犵 148
狅 148
盻 148
緔 148
臁 148
鍠 148
頋 148
ahan 147
alem 147
iff 147
lus 147
▁fascina 147
▁gusto 147
▁hoy 147
▁modul 147
▁showing 147
▁syke 147
▁visitors 147
勔 147
湗 147
赇 147
趯 147
镤 147
闀 147
mination 146
rate 146
▁followed 146
▁gasto 146
▁guten 146
▁jami 146
▁samar 146
▁sols 146
▁voter 146
杧 146
燋 146
盦 146
祲 146
筦 146
綷 146
鍧 146
鸀 146
angel 145
ran 145
▁acu 145
▁cred 145
▁fatigue 145
▁morale 145
▁pregnant 145
▁regulations 145
▁sculpt 145
▁violent 145
亰 145
坶 145
嶈 145
憃 145
掓 145
汈 145
輋 145
鸺 145
麑 145
mping 144
nym 144
oku 144
omis 144
zino 144
▁centro 144
▁dich 144
▁ngay 144
▁pita 144
▁prac 144
▁proba 144
▁raman 144
▁tsunami 144
匜 144
喥 144
槉 144
洦 144
炴 144
翧 144
莈 144
蟓 144
鏐 144
hart 143
hor 143
zzo 143
▁abil 143
▁alas 143
▁camino 143
▁copac 143
▁kari 143
▁melu 143
▁pats 143
▁rango 143
▁trapp 143
睎 143
莐 143
軎 143
辧 143
dna 142
geri 142
▁acceptable 142
▁diverse 142
▁emot 142
▁milf 142
▁motivat 142
▁nay 142
▁personally 142
▁promis 142
▁redd 142
▁snowboard 142
▁soviet 142
冱 142
垻 142
妬 142
庢 142
惛 142
擗 142
槜 142
砕 142
膣 142
ccup 141
cure 141
daya 141
lum 141
ndry 141
oria 141
ried 141
rone 141
▁complement 141
▁ditu 141
▁domingo 141
▁experienced 141
▁kru 141
▁mane 141
▁perfectly 141
▁persi 141
▁rigid 141
▁sanit 141
▁squash 141
兘 141
懜 141
栁 141
槪 141
漼 141
矖 141
纁 141
蓷 141
諡 141
锠 141
ollywood 140
sman 140
tioner 140
▁sari 140
▁served 140
▁stole 140
▁toward 140
▁vegetarian 140
嗘 140
尭 140
恝 140
昞 140
暍 140
槒 140
畺 140
脁 140
螤 140
邉 140
鋹 140
鋽 140
雰 140
骒 140
stri 139
▁certainly 139
▁genero 139
▁hygien 139
▁immediately 139
▁mattina 139
▁sini 139
▁tramp 139
兿 139
匄 139
孨 139
慠 139
犑 139
畧 139
藟 139
ascens 138
uga 138
vez 138
▁ammu 138
▁challenges 138
▁pastor 138
▁regen 138
丯 138
仺 138
兂 138
垬 138
廙 138
拃 138
擌 138
敩 138
枡 138
毹 138
禋 138
竝 138
笣 138
葇 138
蕡 138
虵 138
袿 138
酺 138
颥 138
騲 138
髟 138
disk 137
enia 137
ester 137
iyah 137
luck 137
maga 137
▁avocado 137
▁babes 137
▁creme 137
▁infection 137
▁modification 137
▁spontane 137
▁stab 137
▁stood 137
▁ube 137
卆 137
厸 137
咊 137
恛 137
栦 137
泆 137
禸 137
簬 137
脢 137
萫 137
辵 137
鶄 137
fier 136
rera 136
video 136
▁concession 136
▁gambling 136
▁integra 136
▁narcis 136
▁poca 136
▁reflex 136
▁seus 136
▁vulnerable 136
厎 136
喦 136
墬 136
姱 136
婖 136
愙 136
暪 136
枏 136
榃 136
灆 136
琀 136
竢 136
笅 136
迻 136
qe 135
soon 135
▁alia 135
▁attendant 135
▁intre 135
▁nola 135
▁presidenti 135
▁vis 135
傝 135
冿 135
刧 135
啛 135
垇 135
嵕 135
撹 135
熛 135
犏 135
瓛 135
穨 135
薍 135
liber 134
punct 134
robe 134
uer 134
▁diameter 134
▁flexibil 134
▁geometri 134
▁judicial 134
▁kidnap 134
▁lumina 134
▁pedal 134
▁pret 134
▁psychiatr 134
▁publi 134
▁retard 134
▁salam 134
▁sel 134
▁sperm 134
▁submitted 134
▁suppli 134
▁temps 134
厛 134
嗛 134
悆 134
挍 134
昄 134
睋 134
笀 134
醤 134
镋 134
mbur 133
oni 133
stall 133
tar 133
▁ampli 133
▁baci 133
▁stri 133
匂 133
卋 133
坉 133
娤 133
栿 133
湐 133
澯 133
荮 133
蒄 133
遆 133
麕 133
anche 132
hage 132
ives 132
od 132
oza 132
▁assess 132
▁dealing 132
▁lup 132
▁medic 132
▁mica 132
▁muha 132
▁smaller 132
▁torn 132
垾 132
岠 132
愭 132
憖 132
斱 132
欥 132
璕 132
荙 132
闶 132
liga 131
pung 131
sula 131
▁adrenalin 131
▁bianco 131
▁macho 131
▁sli 131
▁vase 131
俫 131
倅 131
僤 131
厾 131
哜 131
帨 131
戻 131
櫂 131
犺 131
疪 131
瞍 131
蒇 131
虂 131
邲 131
釿 131
鏁 131
闅 131
andi 130
building 130
minum 130
nky 130
now 130
shab 130
sori 130
▁auf 130
▁espa 130
▁excitement 130
▁helsinki 130
▁intended 130
▁interact 130
▁kaki 130
▁montes 130
▁pastoral 130
▁sutra 130
▁tiers 130
尩 130
弨 130
昑 130
柤 130
槚 130
槮 130
琻 130
硙 130
胠 130
苖 130
虍 130
賎 130
赆 130
鵙 130
cero 129
lieb 129
nak 129
▁colonial 129
▁grader 129
▁lotta 129
▁mera 129
▁thankful 129
▁tyre 129
嗹 129
嚗 129
埮 129
徯 129
擧 129
橚 129
焑 129
牞 129
硭 129
鄌 129
錧 129
鍎 129
cto 128
gre 128
legar 128
rul 128
worm 128
zes 128
▁calle 128
▁ironi 128
▁mahal 128
▁multiplayer 128
▁patients 128
▁professionals 128
仈 128
傔 128
喨 128
墦 128
崬 128
恊 128
抝 128
洿 128
滧 128
漃 128
澴 128
熲 128
眴 128
襜 128
鏋 128
飐 128
驌 128
髃 128
鬭 128
cini 127
era 127
iac 127
raq 127
rth 127
▁aloe 127
▁bringing 127
▁darle 127
▁devine 127
▁feminin 127
▁mandato 127
▁pont 127
▁shemale 127
▁vegg 127
嘥 127
怊 127
撝 127
曕 127
洏 127
爫 127
畾 127
禖 127
鐟 127
锓 127
+ 126
commerce 126
form 126
oba 126
uts 126
▁auditori 126
▁decor 126
▁differ 126
▁kom 126
▁largest 126
▁tits 126
唪 126
媓 126
嫈 126
宧 126
彺 126
殻 126
洝 126
渧 126
潏 126
焞 126
瞹 126
荍 126
諵 126
軆 126
鵼 126
hab 125
rok 125
trie 125
truck 125
uh 125
▁balcon 125
▁buena 125
▁fart 125
▁gha 125
▁kiosk 125
▁liter 125
▁occupa 125
▁oman 125
▁parole 125
▁proved 125
厐 125
夎 125
孋 125
巟 125
帱 125
庳 125
昍 125
洃 125
睆 125
祃 125
翫 125
芿 125
醾 125
ombre 124
tention 124
▁gru 124
▁kait 124
▁lieu 124
偞 124
傃 124
唫 124
瀮 124
犕 124
觭 124
鼒 124
diagnos 123
mish 123
tega 123
tura 123
▁bany 123
▁hoping 123
▁keur 123
▁kniv 123
▁regarding 123
▁studie 123
囙 123
埧 123
塥 123
捥 123
杕 123
槣 123
欵 123
氱 123
燑 123
玒 123
珄 123
睟 123
糇 123
馹 123
eu 122
hram 122
lane 122
▁ggf 122
▁inevitable 122
▁moderat 122
▁naming 122
▁veg 122
偰 122
冦 122
寽 122
徍 122
掕 122
攽 122
栺 122
汫 122
沺 122
渏 122
眊 122
荈 122
莰 122
螗 122
醨 122
鋕 122
镃 122
飡 122
kur 121
rahman 121
ugi 121
▁dod 121
▁islami 121
▁obviously 121
▁pir 121
▁presente 121
▁qatar 121
▁serra 121
▁specifi 121
▁ubu 121
傎 121
儞 121
垍 121
泙 121
睙 121
祊 121
篚 121
緖 121
翈 121
蹧 121
釨 121
cera 120
etan 120
lak 120
quette 120
sible 120
spicio 120
tronic 120
▁eigen 120
▁elsewhere 120
▁flak 120
▁lomba 120
▁penetra 120
▁yoz 120
倕 120
喯 120
囥 120
嫋 120
峘 120
昽 120
棽 120
浤 120
淛 120
湡 120
潳 120
濙 120
羖 120
萿 120
蒖 120
隷 120
鲖 120
鲹 120
鴞 120
nku 119
tos 119
▁owners 119
▁participat 119
▁sensual 119
墠 119
尮 119
旿 119
朤 119
杫 119
棆 119
椀 119
窾 119
聻 119
膄 119
芢 119
萳 119
謢 119
陧 119
龆 119
grat 118
mans 118
oby 118
pris 118
terna 118
▁accessible 118
▁bangla 118
▁celebr 118
▁metabolism 118
▁plumb 118
▁sandal 118
▁weg 118
偍 118
嚤 118
垎 118
婃 118
媖 118
宑 118
撯 118
湦 118
熥 118
翆 118
詀 118
釒 118
饾 118
鲙 118
鴂 118
鼽 118
fers 117
ilah 117
mmer 117
tib 117
tral 117
unter 117
▁bist 117
▁capabil 117
▁contro 117
▁decisions 117
▁earlier 117
▁enzym 117
▁ignorant 117
▁isn 117
▁kilometer 117
▁recap 117
▁taller 117
伃 117
儵 117
堓 117
嫏 117
峫 117
戙 117
晬 117
牚 117
珜 117
窆 117
訡 117
鈇 117
鐞 117
霡 117
髄 117
鸂 117
end 116
look 116
nali 116
▁cartel 116
▁enforcement 116
▁refrigera 116
▁totes 116
佮 116
侀 116
堟 116
夑 116
奆 116
悥 116
慱 116
扙 116
敟 116
枔 116
棬 116
氂 116
沘 116
琁 116
癈 116
稙 116
苙 116
茤 116
蔯 116
觃 116
趫 116
踭 116
鴈 116
cule 115
ences 115
nout 115
▁aad 115
▁brat 115
▁currently 115
▁helped 115
▁hopefully 115
▁ingredient 115
▁intend 115
▁kross 115
▁marijuana 115
▁miniatur 115
▁obes 115
▁produc 115
▁rendez 115
▁stomach 115
▁substrat 115
▁sultan 115
▁synonym 115
侎 115
兟 115
呰 115
啩 115
嚱 115
廼 115
拑 115
晽 115
浭 115
潙 115
痋 115
萣 115
蟌 115
駰 115
bide 114
cane 114
ew 114
tal 114
wr 114
▁leben 114
▁suara 114
▁trang 114
▁vegetables 114
▁volle 114
▁wondering 114
労 114
埍 114
墼 114
媂 114
旪 114
旲 114
桯 114
棏 114
汌 114
畨 114
磜 114
磪 114
箙 114
袏 114
轷 114
迠 114
鏛 114
鑻 114
gado 113
ples 113
rap 113
rat 113
▁coinciden 113
▁comer 113
▁corri 113
▁dru 113
▁rinna 113
▁stunning 113
▁uyg 113
侴 113
冁 113
凣 113
劦 113
厡 113
嫊 113
戤 113
椮 113
汵 113
沲 113
湼 113
籙 113
鐑 113
閞 113
黪 113
carna 112
fill 112
immat 112
ld 112
official 112
tweet 112
▁agreed 112
▁alga 112
▁brochure 112
▁challenging 112
▁considered 112
▁dine 112
▁emphasis 112
▁hawl 112
▁sunt 112
▁tens 112
仠 112
叇 112
塈 112
墫 112
屇 112
庤 112
櫅 112
毉 112
獏 112
瑸 112
繙 112
荹 112
蝜 112
讙 112
趆 112
鎻 112
饤 112
鴳 112
鶒 112
honor 111
hunga 111
ket 111
lea 111
nol 111
tur 111
▁arg 111
▁boobs 111
▁couldn 111
▁diners 111
▁electoral 111
▁jug 111
▁meri 111
▁mundo 111
▁musique 111
▁receiving 111
▁spr 111
佖 111
凔 111
喼 111
嬑 111
搨 111
煚 111
珃 111
眹 111
繸 111
詧 111
蹾 111
躂 111
鉓 111
鉧 111
鋭 111
鴒 111
eken 110
insa 110
itate 110
sau 110
una 110
zene 110
▁cardio 110
▁demonstra 110
▁donor 110
▁feliz 110
▁kau 110
▁trong 110
▁valet 110
呩 110
廹 110
泘 110
潄 110
獯 110
琄 110
蔏 110
虈 110
貣 110
鑀 110
霅 110
鷉 110
麐 110
av 109
tzu 109
▁beag 109
▁carried 109
▁democrat 109
▁dug 109
▁intervention 109
▁lumin 109
▁nudi 109
▁periodic 109
囏 109
漤 109
瘛 109
箒 109
箹 109
舡 109
蹽 109
遶 109
醵 109
鮩 109
mint 108
rant 108
terne 108
▁americana 108
▁bail 108
▁franca 108
▁malware 108
▁scam 108
咜 108
圚 108
堣 108
巇 108
憝 108
敓 108
昸 108
橾 108
櫄 108
濶 108
瑹 108
蓺 108
鑸 108
ponent 107
rena 107
rist 107
screen 107
thal 107
trice 107
▁granit 107
▁kya 107
▁luft 107
▁paso 107
▁playa 107
▁tragic 107
剉 107
囻 107
媭 107
孭 107
廕 107
憟 107
憿 107
暏 107
椄 107
洖 107
煃 107
牨 107
犉 107
皅 107
窎 107
绖 107
裪 107
褉 107
訆 107
謜 107
鬽 107
quet 106
qy 106
rion 106
storm 106
▁graf 106
▁identi 106
▁infra 106
▁jiwa 106
▁kijiji 106
▁observa 106
▁prepar 106
▁realized 106
▁tega 106
囜 106
娸 106
嶓 106
弸 106
挦 106
歁 106
漰 106
瀙 106
烱 106
熈 106
熯 106
疁 106
皢 106
皵 106
笓 106
綯 106
蔕 106
薳 106
蹯 106
鉎 106
鏆 106
飍 106
ises 105
lump 105
phen 105
tomi 105
yes 105
▁dedicati 105
▁hoor 105
▁klara 105
▁patron 105
▁pero 105
▁sauna 105
冐 105
劐 105
咢 105
啈 105
埊 105
楩 105
湑 105
睍 105
耖 105
辁 105
迣 105
錱 105
鐤 105
闗 105
魋 105
鳽 105
鶵 105
handle 104
tensi 104
xt 104
▁departe 104
▁hef 104
▁infect 104
▁legisla 104
▁pots 104
▁walked 104
乊 104
傪 104
刅 104
唖 104
寎 104
悓 104
摡 104
曻 104
朅 104
楤 104
浗 104
淽 104
灈 104
爔 104
牥 104
犌 104
獈 104
筳 104
莬 104
蛯 104
裣 104
驎 104
bart 103
pood 103
relevant 103
summer 103
▁conduit 103
▁explained 103
▁faris 103
▁gly 103
▁nua 103
▁plural 103
▁sige 103
▁sio 103
▁substantial 103
哃 103
唍 103
嫜 103
峎 103
徃 103
怮 103
挭 103
昡 103
棓 103
樆 103
湇 103
潚 103
灺 103
牿 103
眰 103
禥 103
窰 103
筴 103
苮 103
蘫 103
逰 103
錬 103
韤 103
鮋 103
鴷 103
cession 102
cours 102
gent 102
oso 102
▁bado 102
▁competi 102
▁definit 102
▁emblem 102
▁fertil 102
▁illum 102
▁tumor 102
▁ukrain 102
▁vers 102
僷 102
啀 102
圥 102
嫕 102
徛 102
憺 102
曡 102
槢 102
泒 102
炵 102
燝 102
犱 102
筰 102
蜑 102
褕 102
讌 102
诐 102
鈜 102
鉥 102
鎺 102
雝 102
鞚 102
loh 101
mette 101
raz 101
rios 101
solve 101
▁ake 101
▁cine 101
▁continues 101
▁didn 101
▁firem 101
▁insult 101
▁provides 101
▁seine 101
▁thanh 101
亸 101
勮 101
哱 101
惙 101
揞 101
滍 101
硿 101
粞 101
蕟 101
蛑 101
諲 101
迵 101
邘 101
醁 101
锩 101
cella 100
cin 100
cular 100
lais 100
marin 100
▁agencies 100
▁basically 100
▁fris 100
▁gey 100
▁grands 100
▁linh 100
▁puerto 100
▁taxes 100
▁tol 100
▁tons 100
▁verde 100
伀 100
俽 100
凕 100
墣 100
巃 100
搣 100
晄 100
橿 100
欬 100
汖 100
泧 100
溚 100
熻 100
稊 100
竫 100
臸 100
蒛 100
镸 100
頖 100
cun 99
dham 99
▁communities 99
▁dito 99
▁hydraul 99
▁ity 99
▁notar 99
▁posting 99
▁tots 99
娀 99
嫮 99
岒 99
抯 99
栐 99
槺 99
溻 99
炰 99
琓 99
琾 99
璱 99
秬 99
莤 99
贀 99
迏 99
鍓 99
鞕 99
鰙 99
bric 98
censor 98
free 98
sama 98
vern 98
▁caused 98
▁chlor 98
▁eura 98
▁kuni 98
▁nder 98
▁porto 98
▁reached 98
▁vamos 98
劜 98
囄 98
塨 98
墺 98
婹 98
幓 98
抐 98
枌 98
梾 98
棸 98
榾 98
殽 98
犔 98
珖 98
瞵 98
祌 98
窀 98
箎 98
絑 98
薱 98
薿 98
蛘 98
鞲 98
lif 97
mik 97
▁arri 97
▁cement 97
▁circumstances 97
▁consultation 97
▁directly 97
▁menace 97
▁speci 97
▁staten 97
▁tus 97
偊 97
兯 97
冣 97
戨 97
棑 97
汃 97
灥 97
烣 97
穣 97
笍 97
笩 97
糈 97
臯 97
裀 97
裞 97
鈻 97
铹 97
鬐 97
brid 96
call 96
hiya 96
jong 96
krad 96
lta 96
opia 96
para 96
rna 96
▁blowjob 96
▁controversia 96
▁decorat 96
▁drank 96
▁masturba 96
▁mcm 96
▁passe 96
▁slep 96
▁toh 96
▁vene 96
▁vide 96
丩 96
偂 96
僽 96
兦 96
娋 96
暋 96
枟 96
枻 96
桊 96
汯 96
洓 96
漙 96
盝 96
穈 96
筭 96
緌 96
耢 96
芉 96
蹡 96
辿 96
頽 96
鹢 96
arias 95
bab 95
cchi 95
lish 95
patient 95
▁mozzarella 95
僼 95
唂 95
噭 95
坽 95
姃 95
嫙 95
崕 95
捊 95
洊 95
瞜 95
窂 95
笁 95
薾 95
訄 95
贔 95
邅 95
醂 95
鐹 95
anda 94
dimensional 94
just 94
nat 94
▁calci 94
▁catering 94
▁claro 94
▁consequences 94
▁proverb 94
▁residents 94
▁rost 94
▁solidari 94
▁ust 94
卙 94
唶 94
喠 94
埥 94
姠 94
恘 94
楒 94
漥 94
澘 94
濈 94
粈 94
覑 94
誏 94
蹐 94
鍕 94
阢 94
隩 94
騃 94
魙 94
鮸 94
鯮 94
鲰 94
麳 94
bba 93
brev 93
ddar 93
hahahahaha 93
kapa 93
ssen 93
tempe 93
▁bueno 93
▁considering 93
▁foi 93
▁latina 93
▁putting 93
▁severe 93
▁tampon 93
▁targ 93
刕 93
刼 93
勑 93
咇 93
埶 93
奺 93
娊 93
嵂 93
拝 93
摐 93
旵 93
槥 93
槱 93
橓 93
珼 93
癦 93
矝 93
禨 93
穄 93
簨 93
繄 93
訞 93
謡 93
鑱 93
飠 93
adoption 92
books 92
club 92
iki 92
lani 92
las 92
weise 92
▁behalf 92
▁keh 92
▁lapse 92
▁lett 92
▁masala 92
▁moms 92
▁yonke 92
厖 92
媿 92
嬮 92
崈 92
抷 92
掭 92
摀 92
摱 92
斁 92
枒 92
栔 92
桒 92
殀 92
焄 92
瑺 92
紑 92
緜 92
觿 92
迊 92
鑚 92
锿 92
駆 92
騑 92
魧 92
鰤 92
齮 92
boa 91
sad 91
sions 91
store 91
▁affected 91
▁agua 91
▁bacteria 91
▁cinco 91
▁ero 91
▁kuwa 91
▁mysterie 91
▁nhu 91
▁promenad 91
▁proven 91
▁rop 91
▁spill 91
▁vez 91
唋 91
唥 91
唼 91
啂 91
嚻 91
堁 91
塟 91
嵿 91
彂 91
悊 91
昤 91
檽 91
眽 91
糹 91
綍 91
脤 91
苃 91
荗 91
莵 91
蒱 91
觱 91
阽 91
飈 91
鱓 91
麯 91
alla 90
amu 90
imize 90
mag 90
osh 90
rien 90
ses 90
vare 90
▁branche 90
▁ember 90
▁gato 90
▁hermosa 90
▁mbe 90
▁muna 90
▁planta 90
▁receptor 90
▁siempre 90
▁topp 90
▁webinar 90
▁zones 90
伮 90
佁 90
俙 90
劒 90
奵 90
廰 90
彽 90
徝 90
懠 90
挐 90
撖 90
旇 90
暕 90
楃 90
沋 90
炣 90
矅 90
矟 90
芧 90
菢 90
lim 89
mbro 89
sser 89
stadt 89
tyk 89
▁bland 89
▁brann 89
▁longitud 89
▁wala 89
偟 89
僝 89
垿 89
埄 89
墡 89
姀 89
棡 89
汘 89
珟 89
痃 89
禆 89
輶 89
鋻 89
鳆 89
det 88
haven 88
pea 88
pedia 88
▁bomba 88
▁occ 88
▁offered 88
偢 88
儢 88
坮 88
堢 88
娍 88
尣 88
彴 88
忬 88
忴 88
晹 88
曵 88
杙 88
樼 88
沰 88
渶 88
湶 88
滺 88
澒 88
瓟 88
畐 88
礑 88
粍 88
臫 88
蓰 88
贁 88
飃 88
agan 87
alis 87
dating 87
entia 87
flag 87
nec 87
nka 87
pied 87
▁fille 87
▁gry 87
▁lateral 87
▁located 87
▁obo 87
▁opposition 87
▁posse 87
▁starfi 87
呅 87
埆 87
塭 87
夿 87
婡 87
惏 87
拰 87
挄 87
渁 87
盌 87
箘 87
篹 87
螠 87
覊 87
躹 87
逇 87
逌 87
陏 87
頵 87
鶗 87
bas 86
fici 86
ising 86
pru 86
tif 86
writing 86
▁civili 86
▁dop 86
▁forced 86
▁lain 86
▁municipal 86
▁och 86
侚 86
偭 86
勬 86
咅 86
咺 86
夛 86
妭 86
廞 86
楁 86
榟 86
槦 86
涬 86
渮 86
煭 86
痁 86
罫 86
蔊 86
鐝 86
阾 86
鮍 86
鳚 86
鳣 86
dict 85
issue 85
mai 85
ncies 85
pler 85
ptic 85
▁cala 85
▁dorit 85
▁essa 85
▁havas 85
▁immun 85
▁punct 85
▁refu 85
▁sending 85
丱 85
傌 85
嬞 85
弚 85
慆 85
椼 85
歾 85
燳 85
瘨 85
胲 85
茡 85
迍 85
銉 85
髢 85
cos 84
lius 84
pant 84
plant 84
vah 84
▁familia 84
▁jeho 84
▁motiva 84
▁nge 84
傞 84
冾 84
哫 84
嘪 84
嚞 84
埑 84
弖 84
慒 84
敺 84
柦 84
洬 84
涒 84
濇 84
瀜 84
烸 84
璹 84
皃 84
祡 84
簒 84
莿 84
衻 84
諎 84
鋬 84
顚 84
馡 84
鮠 84
鶏 84
dioxid 83
rou 83
▁giveaway 83
▁romani 83
▁sled 83
▁sona 83
▁thorough 83
▁titt 83
▁websites 83
僣 83
勄 83
崝 83
忺 83
怑 83
惞 83
抦 83
攲 83
敧 83
旉 83
暔 83
汄 83
淴 83
溂 83
瀻 83
犋 83
獁 83
眢 83
硶 83
羶 83
脦 83
苭 83
訑 83
趷 83
辬 83
鄗 83
鑵 83
鞬 83
鷃 83
held 82
ius 82
oks 82
spec 82
specta 82
tube 82
xu 82
▁baix 82
▁compliment 82
▁eri 82
▁glaz 82
▁hoge 82
▁kak 82
▁luni 82
▁ponder 82
▁rahul 82
▁vikt 82
刲 82
呌 82
墰 82
宭 82
嶦 82
帡 82
彯 82
抇 82
挃 82
摫 82
朘 82
榶 82
澣 82
玞 82
珒 82
皧 82
礚 82
筥 82
萚 82
蔍 82
虙 82
裛 82
輗 82
鋀 82
鐾 82
鞒 82
駉 82
龏 82
erit 81
git 81
ifying 81
installer 81
moli 81
xin 81
▁aina 81
▁burri 81
▁custo 81
▁ere 81
▁particularly 81
▁struggling 81
倗 81
僿 81
凘 81
匸 81
叴 81
喌 81
塜 81
妱 81
尗 81
嶉 81
桭 81
椓 81
歨 81
璗 81
盬 81
祫 81
竪 81
緤 81
縸 81
艻 81
茠 81
褦 81
軚 81
鎛 81
鴃 81
麪 81
ati 80
oze 80
platform 80
sell 80
▁adding 80
▁donde 80
▁elaborat 80
▁especial 80
▁pens 80
▁recess 80
▁rehabilita 80
倴 80
凞 80
嚬 80
圫 80
埛 80
埪 80
寗 80
峔 80
擭 80
暀 80
朒 80
杛 80
槏 80
橪 80
浀 80
炏 80
狶 80
玐 80
琱 80
紷 80
脰 80
臞 80
諪 80
賛 80
赽 80
踼 80
躰 80
逨 80
醡 80
鑨 80
铇 80
鞎 80
骹 80
atio 79
lange 79
letes 79
rillo 79
teria 79
▁dias 79
▁euros 79
▁germ 79
▁hostes 79
▁muy 79
▁quiero 79
▁spro 79
偝 79
嘂 79
壼 79
崒 79
幚 79
愮 79
掦 79
摖 79
曀 79
杋 79
橗 79
澫 79
灀 79
狟 79
琂 79
臦 79
茖 79
菼 79
蒶 79
蠋 79
訉 79
蹍 79
鎽 79
铻 79
閅 79
騩 79
骱 79
鸼 79
麀 79
aka 78
bler 78
boob 78
lini 78
rri 78
support 78
uhu 78
vit 78
▁aqui 78
▁gigant 78
▁increased 78
▁membran 78
▁ond 78
▁usi 78
▁vendredi 78
倲 78
刓 78
圵 78
堭 78
攋 78
柆 78
棃 78
槂 78
歓 78
殣 78
涭 78
爖 78
牫 78
矼 78
簩 78
繠 78
艼 78
萂 78
蝨 78
酏 78
銤 78
鞔 78
魊 78
entie 77
gues 77
iro 77
ptica 77
tag 77
▁drie 77
▁ells 77
▁ince 77
▁kura 77
▁necessarily 77
▁replied 77
▁teme 77
▁tierra 77
▁versi 77
勭 77
哴 77
喍 77
囓 77
圗 77
垶 77
堨 77
媠 77
廵 77
悎 77
憡 77
搒 77
曞 77
檇 77
浕 77
漻 77
濅 77
炑 77
瑈 77
箑 77
耎 77
藌 77
誋 77
誾 77
輮 77
遝 77
郳 77
鐭 77
頩 77
颕 77
check 76
gr 76
hyl 76
lit 76
monia 76
porn 76
reach 76
trud 76
tuan 76
▁aga 76
▁guerra 76
▁hool 76
▁portion 76
▁presse 76
▁recita 76
▁xem 76
伻 76
倳 76
凎 76
凐 76
匼 76
嚧 76
娰 76
嬀 76
悁 76
旽 76
朂 76
杢 76
洉 76
涷 76
湏 76
濪 76
瀓 76
灻 76
焾 76
犃 76
犾 76
笘 76
篢 76
紟 76
翖 76
荰 76
蕸 76
蠙 76
貙 76
踧 76
鎱 76
鞄 76
飮 76
飱 76
鮈 76
bad 75
dahl 75
dhe 75
idad 75
nier 75
orthodox 75
tius 75
wir 75
▁absolut 75
▁apparent 75
▁individuals 75
▁kiya 75
▁matern 75
▁suggestions 75
佫 75
厳 75
唊 75
唌 75
塮 75
奣 75
愒 75
懡 75
挀 75
掍 75
毦 75
洴 75
淜 75
湝 75
爌 75
犙 75
瘉 75
矰 75
磳 75
竼 75
脃 75
苅 75
茊 75
菍 75
蠵 75
蹱 75
鎓 75
鎾 75
鑴 75
雚 75
頞 75
髆 75
鷰 75
ash 74
curr 74
lies 74
marks 74
quart 74
sio 74
smart 74
▁answered 74
▁anticipa 74
▁frustration 74
▁itin 74
▁kudu 74
▁lue 74
▁nena 74
▁porno 74
▁showed 74
伡 74
侫 74
俻 74
僩 74
嗕 74
埻 74
娐 74
嬩 74
憓 74
扏 74
掹 74
櫋 74
歈 74
泤 74
浰 74
滪 74
猼 74
獛 74
硔 74
綶 74
罉 74
葻 74
褧 74
鄤 74
酓 74
銋 74
銱 74
鎼 74
闓 74
阬 74
霃 74
chatting 73
desh 73
ind 73
▁exterior 73
▁invert 73
▁sali 73
▁seemed 73
▁trib 73
俥 73
剤 73
嘒 73
妟 73
嫀 73
忊 73
抈 73
揦 73
泬 73
澋 73
玈 73
璍 73
瘭 73
蓏 73
蓸 73
蚮 73
蜎 73
褵 73
謩 73
鐣 73
頴 73
ams 72
ax 72
cale 72
ndi 72
pone 72
publi 72
tiv 72
uti 72
verne 72
▁babu 72
▁calorie 72
▁culturel 72
▁gluco 72
▁ndi 72
▁patio 72
▁rink 72
▁slippe 72
刦 72
嫍 72
庛 72
愐 72
愼 72
揳 72
揼 72
晈 72
煠 72
瘝 72
眘 72
磞 72
紞 72
紾 72
聨 72
腄 72
荺 72
諴 72
貹 72
轪 72
醲 72
闉 72
雊 72
靸 72
鬙 72
鱤 72
鳋 72
ayo 71
lou 71
parent 71
rato 71
rif 71
two 71
▁autre 71
▁bases 71
▁compost 71
▁flav 71
▁humid 71
▁mover 71
▁participants 71
▁plano 71
佌 71
倝 71
偙 71
儭 71
刌 71
叏 71
喐 71
嚚 71
宊 71
尫 71
幑 71
徔 71
悗 71
愓 71
挆 71
掔 71
昬 71
檒 71
沴 71
浟 71
浱 71
湋 71
湸 71
熶 71
牗 71
磄 71
窓 71
莾 71
蕜 71
衒 71
譃 71
遡 71
鄃 71
醽 71
鎹 71
assis 70
azh 70
bring 70
rance 70
sade 70
sit 70
tolera 70
▁batterie 70
▁consolida 70
▁descend 70
▁discovered 70
▁edib 70
▁een 70
▁elu 70
▁gymnast 70
▁manda 70
▁mediterrane 70
▁navigare 70
▁pendant 70
▁portu 70
▁regularly 70
▁uch 70
傆 70
冘 70
匊 70
哶 70
喛 70
圼 70
壵 70
宻 70
忳 70
慭 70
拺 70
桾 70
歠 70
歭 70
汼 70
泝 70
溾 70
獳 70
玁 70
砅 70
笢 70
翢 70
耥 70
聛 70
膙 70
臢 70
謃 70
趐 70
跕 70
鉢 70
鉷 70
頣 70
鵩 70
duc 69
kken 69
polo 69
rib 69
ulation 69
▁authorities 69
▁enda 69
▁fia 69
▁improving 69
▁nuevo 69
▁placed 69
▁previously 69
▁schi 69
▁uz 69
仛 69
仯 69
偆 69
喣 69
喿 69
塂 69
妶 69
婔 69
嫇 69
尀 69
巎 69
帢 69
揜 69
晿 69
暜 69
朳 69
柲 69
栫 69
櫌 69
毪 69
爚 69
犅 69
琸 69
肷 69
蘓 69
酖 69
醖 69
鋗 69
鐦 69
骻 69
鲯 69
鲿 69
鵾 69
blu 68
buku 68
harap 68
iat 68
ilin 68
ova 68
por 68
vei 68
▁kayo 68
▁ont 68
▁preserva 68
▁tablets 68
侸 68
倸 68
唚 68
喴 68
嚡 68
囋 68
堦 68
塙 68
姟 68
娮 68
娯 68
婅 68
宔 68
敭 68
棅 68
渻 68
灮 68
炪 68
煂 68
煄 68
瑮 68
硧 68
穠 68
竾 68
箣 68
箶 68
縘 68
纚 68
蓪 68
薣 68
覔 68
軰 68
酫 68
鈼 68
錩 68
鍣 68
镮 68
靁 68
龞 68
blon 67
health 67
prac 67
rsa 67
tre 67
tunt 67
▁coraz 67
▁excessive 67
▁grud 67
▁imi 67
伬 67
堼 67
幙 67
忲 67
怗 67
攧 67
枃 67
棌 67
榑 67
洰 67
漮 67
潓 67
畇 67
瘽 67
笧 67
脶 67
蓤 67
蓲 67
衯 67
赒 67
釪 67
鐻 67
閧 67
颿 67
鮜 67
鱵 67
鶺 67
齎 67
dat 66
diya 66
lek 66
mester 66
nger 66
ots 66
riko 66
sports 66
▁angol 66
▁antar 66
▁cancella 66
▁choosing 66
▁enjoyed 66
▁hac 66
▁hasta 66
▁keli 66
▁piercing 66
▁scal 66
儗 66
儱 66
兊 66
凬 66
剳 66
墎 66
壻 66
妜 66
娕 66
娵 66
媁 66
孼 66
帊 66
庨 66
愢 66
斅 66
暤 66
柍 66
檰 66
殜 66
泍 66
渜 66
煓 66
獦 66
珋 66
祱 66
秞 66
穜 66
竂 66
粃 66
紦 66
緼 66
艎 66
趎 66
跱 66
踇 66
醿 66
錀 66
鑢 66
餀 66
餠 66
魭 66
鷨 66
bla 65
cell 65
ean 65
eka 65
enie 65
fac 65
glia 65
ifs 65
loos 65
▁embo 65
▁feu 65
▁fixa 65
▁lasa 65
▁oni 65
▁rustic 65
▁spek 65
▁tle 65
▁treated 65
仚 65
偅 65
厑 65
堐 65
嫿 65
嬃 65
尯 65
嵣 65
廘 65
愊 65
挧 65
摋 65
旛 65
枲 65
栨 65
橀 65
泑 65
澁 65
煾 65
牓 65
瘖 65
癎 65
睄 65
秝 65
稆 65
穾 65
笐 65
粯 65
絾 65
纇 65
芛 65
茷 65
蕣 65
軏 65
銙 65
钑 65
鬬 65
鮓 65
鹯 65
hila 64
kora 64
llin 64
qli 64
▁caccia 64
▁cavi 64
▁laba 64
▁mardi 64
▁mentioned 64
▁pel 64
▁somewhat 64
▁termin 64
▁throughout 64
伇 64
僎 64
冸 64
嘼 64
塿 64
壒 64
峱 64
崏 64
庣 64
弻 64
拡 64
擫 64
晼 64
棁 64
棤 64
槖 64
檮 64
湆 64
珢 64
盁 64
砠 64
禌 64
窞 64
綋 64
繘 64
罸 64
蔈 64
蝀 64
褘 64
轘 64
辀 64
騧 64
鬪 64
鳾 64
alto 63
dana 63
rock 63
unting 63
▁ambition 63
▁aren 63
▁centimeter 63
▁doz 63
▁invit 63
▁italiano 63
▁legitima 63
▁pec 63
▁possibili 63
▁seri 63
儬 63
哣 63
唗 63
噀 63
埞 63
姺 63
尃 63
屰 63
峳 63
嵻 63
巠 63
徤 63
忋 63
憹 63
捔 63
敤 63
斶 63
杄 63
柅 63
桝 63
椆 63
毴 63
浢 63
潥 63
澼 63
煶 63
狖 63
狥 63
瘮 63
眍 63
碕 63
簆 63
綅 63
繤 63
纴 63
茋 63
菄 63
衵 63
詻 63
誔 63
踘 63
迶 63
鐍 63
闬 63
飂 63
鯓 63
鰟 63
hli 62
jer 62
nchi 62
zig 62
▁ary 62
▁entirely 62
▁kou 62
▁ponte 62
▁reik 62
▁stro 62
▁unes 62
亗 62
僡 62
凥 62
墲 62
夗 62
屴 62
悮 62
挬 62
掯 62
搙 62
搲 62
斈 62
栕 62
梠 62
棊 62
棾 62
楖 62
橆 62
檹 62
泏 62
渘 62
渱 62
滀 62
潩 62
燂 62
琣 62
瑏 62
瑑 62
盨 62
笯 62
粙 62
繏 62
罠 62
耈 62
肶 62
萐 62
蒈 62
薸 62
蜺 62
迌 62
邩 62
鈭 62
鋳 62
雮 62
霫 62
髣 62
centi 61
enburg 61
faq 61
financ 61
xxx 61
▁aut 61
▁creati 61
▁culinar 61
▁dubbi 61
▁ett 61
▁handicap 61
▁indica 61
▁mando 61
▁momento 61
▁picked 61
▁prominent 61
▁properly 61
▁trem 61
儜 61
厤 61
咈 61
圱 61
夵 61
媔 61
宆 61
嵨 61
惎 61
挮 61
旈 61
梹 61
棿 61
椾 61
榠 61
歜 61
洤 61
瀿 61
煿 61
爅 61
狓 61
猨 61
玪 61
瑬 61
璲 61
疢 61
盷 61
禑 61
稡 61
窉 61
窵 61
粩 61
絻 61
纕 61
芕 61
芞 61
芲 61
蒝 61
蚛 61
蟕 61
衶 61
譱 61
躝 61
鍮 61
鎕 61
鏦 61
钁 61
颷 61
骦 61
鹠 61
鼈 61
eda 60
eno 60
gestion 60
met 60
nts 60
pan 60
pla 60
rila 60
▁boro 60
▁kilogram 60
▁madre 60
▁muchas 60
▁profesor 60
▁regardless 60
▁serie 60
▁swo 60
▁toujours 60
▁valde 60
▁venez 60
伓 60
侳 60
倯 60
呫 60
唀 60
噃 60
坢 60
塡 60
媷 60
嬜 60
崶 60
弪 60
惥 60
搷 60
攟 60
敊 60
晻 60
楅 60
榚 60
浺 60
涊 60
漒 60
潫 60
澙 60
澭 60
濎 60
燨 60
猯 60
珷 60
琖 60
瓕 60
痟 60
眎 60
眲 60
硊 60
箂 60
箻 60
簜 60
粡 60
絣 60
絿 60
茞 60
葢 60
蘹 60
螎 60
裋 60
踄 60
蹅 60
鉽 60
銛 60
霨 60
鬒 60
driv 59
endo 59
ien 59
madan 59
mple 59
qi 59
radi 59
release 59
sites 59
stat 59
uille 59
▁agus 59
▁apparently 59
▁barba 59
▁beneficia 59
▁custa 59
▁fein 59
▁hina 59
▁manana 59
▁orta 59
▁resa 59
▁roj 59
▁servi 59
▁slutt 59
傫 59
刜 59
咟 59
唴 59
垹 59
尞 59
巬 59
怤 59
悷 59
惵 59
憣 59
昖 59
昹 59
桪 59
棩 59
槫 59
淍 59
牅 59
犈 59
琈 59
璫 59
蕯 59
藋 59
褭 59
詸 59
踎 59
鉮 59
雘 59
駃 59
魨 59
ambo 58
athlon 58
atia 58
delt 58
gus 58
nto 58
sz 58
▁automatically 58
▁badu 58
▁conta 58
▁dildo 58
▁hie 58
▁juste 58
▁kle 58
▁mwa 58
▁niya 58
▁origina 58
▁posta 58
▁universi 58
▁wider 58
▁zur 58
叐 58
唭 58
姶 58
尌 58
屸 58
岨 58
崡 58
徫 58
挰 58
摷 58
敀 58
泜 58
洟 58
滐 58
漴 58
濔 58
烇 58
玝 58
珌 58
珸 58
瘯 58
皌 58
皪 58
瞤 58
瞫 58
硍 58
祩 58
禴 58
穻 58
穽 58
笌 58
筸 58
箟 58
篴 58
缞 58
脗 58
膪 58
膴 58
菶 58
蕚 58
蠧 58
裵 58
誽 58
豗 58
逈 58
邤 58
鐚 58
阤 58
靘 58
靯 58
韂 58
飗 58
馜 58
駸 58
髠 58
麞 58
au 57
inas 57
ivo 57
och 57
respect 57
ssum 57
toon 57
zania 57
▁ange 57
▁announced 57
▁constantly 57
▁grav 57
▁implant 57
▁symptom 57
▁tract 57
▁walki 57
乕 57
僈 57
凓 57
叅 57
咓 57
坆 57
夓 57
徎 57
徰 57
悹 57
懙 57
挴 57
斢 57
曪 57
槈 57
淲 57
灊 57
灲 57
爼 57
璡 57
筩 57
箠 57
箥 57
薠 57
藽 57
袀 57
袊 57
覛 57
讐 57
讱 57
輧 57
酦 57
鬶 57
鬺 57
aldean 56
bou 56
ferenc 56
jamas 56
lise 56
pita 56
▁confe 56
▁eba 56
▁eligible 56
▁gips 56
▁ihop 56
▁ili 56
▁illi 56
▁initiat 56
▁kota 56
▁recipient 56
▁skep 56
▁ved 56
▁vlog 56
侢 56
刣 56
唹 56
啌 56
垊 56
姷 56
屧 56
岦 56
嶃 56
彲 56
徏 56
忹 56
怷 56
惐 56
愯 56
捈 56
撗 56
攠 56
旐 56
楶 56
灙 56
焅 56
玃 56
瑂 56
硾 56
磑 56
礳 56
礿 56
竒 56
竷 56
箽 56
縀 56
繲 56
耏 56
腍 56
舩 56
茩 56
軿 56
輈 56
釄 56
鎞 56
陁 56
驡 56
髴 56
魌 56
鮦 56
麁 56
麃 56
askan 55
linger 55
nac 55
rlo 55
won 55
▁afla 55
▁botani 55
▁dins 55
▁eres 55
▁insula 55
▁presbyter 55
▁remedio 55
凾 55
劋 55
墐 55
壈 55
妀 55
婈 55
崯 55
嵆 55
嵲 55
愖 55
憕 55
戁 55
斳 55
枺 55
櫒 55
溞 55
濸 55
礠 55
竉 55
籯 55
粋 55
聅 55
脽 55
褯 55
詌 55
謷 55
輀 55
輌 55
辒 55
迯 55
阧 55
霺 55
馌 55
鯈 55
鰂 55
andro 54
asi 54
bry 54
cour 54
fat 54
hro 54
ologie 54
reducing 54
scrip 54
stan 54
tension 54
ucht 54
yah 54
▁asteroid 54
▁bes 54
▁fett 54
▁gud 54
▁huy 54
▁immigrant 54
▁premis 54
▁ripa 54
▁sensu 54
▁tudi 54
▁urbana 54
▁witte 54
侾 54
剫 54
吂 54
吺 54
咃 54
妵 54
娷 54
孮 54
屩 54
忇 54
慦 54
搯 54
斦 54
朌 54
栚 54
橝 54
橤 54
汋 54
溕 54
焟 54
熀 54
爃 54
獞 54
玱 54
瑔 54
瑳 54
璵 54
痏 54
磦 54
禗 54
綕 54
纎 54
舥 54
艴 54
莕 54
蓨 54
詟 54
誷 54
蹆 54
醩 54
鍨 54
鎸 54
aca 53
enc 53
ligi 53
mics 53
vall 53
▁centi 53
▁gue 53
▁gumb 53
▁gutter 53
▁iki 53
▁todos 53
伒 53
勽 53
吷 53
哹 53
噑 53
埢 53
夽 53
孻 53
峟 53
彾 53
択 53
抰 53
擩 53
檲 53
洭 53
濨 53
烕 53
琌 53
璊 53
畻 53
盄 53
眳 53
祣 53
竸 53
粅 53
繋 53
繐 53
翋 53
翺 53
耇 53
耤 53
耹 53
脕 53
荁 53
虖 53
褃 53
褱 53
詤 53
諠 53
諻 53
迒 53
鐥 53
鑛 53
隬 53
鱬 53
鷁 53
dino 52
function 52
hiko 52
mak 52
ombo 52
opo 52
uring 52
vajo 52
yb 52
▁antibiotic 52
▁approximately 52
▁arro 52
▁cannabis 52
▁ela 52
▁kall 52
▁lec 52
▁obe 52
▁urin 52
儫 52
匽 52
厹 52
唈 52
嚖 52
垉 52
埰 52
奼 52
姅 52
娢 52
媟 52
巌 52
巶 52
忦 52
摝 52
昷 52
柶 52
泲 52
爜 52
狔 52
猺 52
琡 52
璳 52
痌 52
眤 52
秌 52
簊 52
簺 52
翬 52
肧 52
舠 52
苨 52
萠 52
蓴 52
蕐 52
蕼 52
蟎 52
褎 52
貒 52
鏠 52
驣 52
鬷 52
鬿 52
鰆 52
found 51
kat 51
maz 51
missi 51
onia 51
ror 51
sso 51
▁albo 51
▁bola 51
▁corde 51
▁dulu 51
▁gam 51
▁gla 51
▁musi 51
▁noticed 51
▁plast 51
▁specifica 51
▁tengo 51
劚 51
啅 51
啠 51
喒 51
奊 51
妉 51
婌 51
媆 51
寈 51
寍 51
巸 51
徾 51
悘 51
愪 51
懧 51
抌 51
搰 51
曏 51
梡 51
梫 51
棈 51
楡 51
汮 51
洀 51
漹 51
焥 51
燶 51
皀 51
盫 51
眕 51
眫 51
砫 51
稕 51
窐 51
簴 51
縤 51
蚿 51
袝 51
譌 51
跅 51
蹔 51
蹵 51
鋩 51
鏾 51
鞝 51
饘 51
鵷 51
ations 50
headh 50
nta 50
pine 50
posta 50
pyt 50
rada 50
sent 50
▁amigos 50
▁compar 50
▁enorm 50
▁lev 50
▁planeta 50
▁salaam 50
▁situations 50
▁summo 50
▁tena 50
儹 50
圠 50
墽 50
妑 50
妔 50
姰 50
娗 50
孅 50
崱 50
帟 50
忟 50
悏 50
惒 50
挵 50
掿 50
摃 50
擓 50
敹 50
旍 50
椌 50
樷 50
沜 50
泟 50
湢 50
灉 50
焫 50
爯 50
犻 50
琠 50
瓀 50
秊 50
竵 50
筞 50
箤 50
箰 50
簮 50
縗 50
芺 50
莟 50
蕒 50
袡 50
詨 50
錑 50
[...]
